/**
  ******************************************************************************
  * @file    network_data_params.c
  * @author  AST Embedded Analytics Research Platform
  * @date    Fri Aug 11 15:43:12 2023
  * @brief   AI Tool Automatic Code Generator for Embedded NN computing
  ******************************************************************************
  * Copyright (c) 2023 STMicroelectronics.
  * All rights reserved.
  *
  * This software is licensed under terms that can be found in the LICENSE file
  * in the root directory of this software component.
  * If no LICENSE file comes with this software, it is provided AS-IS.
  ******************************************************************************
  */

#include "network_data_params.h"


/**  Activations Section  ****************************************************/
ai_handle g_network_activations_table[1 + 2] = {
  AI_HANDLE_PTR(AI_MAGIC_MARKER),
  AI_HANDLE_PTR(NULL),
  AI_HANDLE_PTR(AI_MAGIC_MARKER),
};




/**  Weights Section  ********************************************************/
AI_ALIGNED(32)
const ai_u64 s_network_weights_array_u64[8880] = {
  0x3c8126893c809fe3U, 0x3c78b7683c81f6beU, 0x3c80473e3c8224a6U, 0x3c8213b33c8761b1U,
  0x3c8228643c81b600U, 0x3c8295d83c856740U, 0x3c813e0d3c81bf61U, 0x3c85ff7c3c818bcaU,
  0x3c8263f83c85d06dU, 0x3c8138553c8754a8U, 0x3c81e3df3c81bfeaU, 0x3c827bb03c1b6394U,
  0x3c81c1bf3c82962fU, 0x3c81e4fe3c827ca5U, 0x3c828e423c81c12cU, 0x3c824ffe3c81d071U,
  0x3c7d7b583c7f1672U, 0x3c80e3853c801e51U, 0x3c827d023c8062ebU, 0x3c8020a33c8263f5U,
  0x3c23337f3c81eb06U, 0x3c80c93d3c8198f5U, 0x3c80d84f3c82901eU, 0x3c80d8593c84b2f4U,
  0x3c81ec5f3c821f48U, 0x3c86f0933c8251b7U, 0x3c8223453c4177ccU, 0x3c81eed13f1ed30aU,
  0x3c819a573c823398U, 0x3c8251593c81e80bU, 0x3c8251d23c809da9U, 0x3c77a44c3c81cd1eU,
  0x3c81eb603c81e18cU, 0x3c80768f3c868101U, 0x3c80d84d3c7ee500U, 0x3c82903c3c818f0eU,
  0x3c8277a13c828887U, 0x3c81dfae3c7f4f1aU, 0x3c81c01b3c819bd9U, 0x3c82e6bf3c8007c9U,
  0x3c838e943c7890c9U, 0x3c8223983c81d8b2U, 0x3c64a9973c81ee22U, 0x3c82954c3c7fdec1U,
  0x3c81d08c3c8098b8U, 0x3c6a6f893c786721U, 0x3c8251c53c7f47e0U, 0x3c40836a3c8250f0U,
  0x3c8290d83c80d87bU, 0x3d53666d3c81c24bU, 0x3c8249893c81a3feU, 0x3c3080a83c81d06eU,
  0x3c6f74283c820bb4U, 0x3c814e2e3c821f17U, 0x3c805c683c8251c3U, 0x3c7fb1923c81a6d3U,
  0x3c7249af3c8219a7U, 0x3c8224163c821af0U, 0x3c82517e3c81df6cU, 0x3c81c4403c81e379U,
  0x3c81edff3c85d9eeU, 0x3c81de193c809e36U, 0x3c8242593c81ab31U, 0x3c80c1303c80d889U,
  0x3c8170af3c809e3bU, 0x3c81e2543c817e34U, 0x3c81e7ee3c824559U, 0x3c8187773c81d0b2U,
  0x3c81df123c7fd741U, 0x3c81bca13c81d5d5U, 0x3c80056e3c7afd21U, 0x3c8207003c825351U,
  0x3c82037b3c856730U, 0x3c80cf2c3c8251d2U, 0x3c821a073c81b4edU, 0x3c7945213c81d213U,
  0x3c8214433c434198U, 0x3c82879f3c809dd7U, 0x3c8267ba3c81b0d7U, 0x3c6d3d513c822abfU,
  0x3c8752533c80bf6cU, 0x3c81838c3c821958U, 0x3c872bbf3c809cbcU, 0x3c73bfb93c81c349U,
  0x3c7b2b3e3c806572U, 0x3c821b543c80676fU, 0x3c822af63c80464cU, 0x3c8191de3dbc1811U,
  0x3c80bd6c3c81d64cU, 0x3c82b7113c8274aaU, 0x3c81d0363c823809U, 0x3c821ec63c82242eU,
  0x3c813a0d3c81e4e4U, 0x3c708e513c81ce99U, 0x3c82e04f3c8278a1U, 0x3c822a5e3c81efc3U,
  0x3c81cd1a3cab8f92U, 0x3c821b3e3c8223d5U, 0x3c8221233c821eb0U, 0x3c85c1643c81c291U,
  0x3c820d1c3c80a069U, 0x3c85684c3c81e037U, 0x3c58cf9e3c7ab0e9U, 0x3c827dfc3c85c0b3U,
  0xbfc7894d80000000U, 0xbf8b61ebbdb8a4a2U, 0xbf9e761c80000000U, 0x8000000080000000U,
  0xbfc71f2680000000U, 0xbf61b96f80000000U, 0xbf8cca9080000000U, 0xbf19842980000000U,
  0xbf646019bf50384eU, 0xbf819492bf816d6cU, 0xbe9500c5bfb4106cU, 0xbf5ba420bf43b599U,
  0x80000000bcf2cfb5U, 0xbfb8b79c80000000U, 0xbee26742bf8e24ebU, 0x80000000bf95428cU,
  0xbf6bbcf6be6f673aU, 0xbecbbf10bfb433f2U, 0x80000000bfa6450aU, 0xbec40bf5bf8030a1U,
  0xbf41ae56be0f3494U, 0xbf0f6325bf2445ecU, 0xbb3843a5becc7ff6U, 0x80000000bf86d5b6U,
  0xbfa5b22dbfae1216U, 0xbf8d525180000000U, 0xbfc6c68680000000U, 0xbe817b6bbeb5bc14U,
  0xbf177d17bfae5e99U, 0xbf86eafbbdb0671aU, 0x80000000bfa172a5U, 0xbfc7ba56bf1c3089U,
  0x80000000bea24133U, 0xbd8539f5bf6735eeU, 0xbfb012ddbfa0efd1U, 0xbfb775babfa7220eU,
  0xbf8e94a1bf7b32f1U, 0xbfbfdbd9bf1708f8U, 0xbe3d8acc80000000U, 0xbf6c3852bec44918U,
  0x80000000bf1bfb49U, 0xbf02e94fbfc44e27U, 0xbf1b305e80000000U, 0x80000000bebeda13U,
  0x80000000bfba8062U, 0x80000000bfb839fcU, 0xbe9e2f47bf6a8c8cU, 0xbf9d09d380000000U,
  0xbe5ea57ebcbef2ddU, 0xbf60daa2bfc654f3U, 0xbe6ccb25bf8db233U, 0xbfc7e456bf183bf5U,
  0xbf2e8e8280000000U, 0x80000000bf4a7cd4U, 0xbee9e44dbf1e93e8U, 0xbfc7b01ebf3bbec5U,
  0xbfa20cd2bf2b1405U, 0xbf6680eebf813d60U, 0x80000000bea24641U, 0xbf58f82780000000U,
  0xbf86119dbf6af7beU, 0xbfc678ebbf21edd6U, 0x8000000080000000U, 0xbf1354ad80000000U,
  0xbfb6f142bf2d0a1eU, 0x80000000bfbb01f9U, 0x80000000bfa5ba88U, 0xbfaf9c70bf1d6264U,
  0xbecea5ebbfb1e535U, 0xbe91d03a80000000U, 0x8000000080000000U, 0xbf946d23bf4e2fd3U,
  0xbf2467d3bf4d21c7U, 0xbf0733b1bd8b3fb8U, 0xbdbaaa9880000000U, 0xbeb0f688bdfb8923U,
  0xbf8670d4bf6f69beU, 0xbf096691befadd56U, 0xbed257f8bf3689d7U, 0xbf9aa957bebc150bU,
  0xbe03ae20bea228edU, 0xbea7f858bece255eU, 0xbf4f06fbbeac3803U, 0xbf6df376bec14190U,
  0xbf45ff23bf55f6d7U, 0x80000000bebfbdbdU, 0xbf31f7d3bedc8cd4U, 0xbed1be3ebf7a4fa9U,
  0xbefc83e5bf3775b5U, 0xbf6432f6bf05228bU, 0xbf47da8bbe5822adU, 0xbf16e332be8a5dceU,
  0x80000000be5f0891U, 0xbd95ab08bf87008eU, 0xbf554822bf61e2a6U, 0xbf660710be7672c5U,
  0xbe1af06fbbb0c60fU, 0xbf253de4bf08ab5bU, 0xbebc1525bed1ddb1U, 0x80000000bf5da186U,
  0xbe2c47fabf8aee65U, 0x80000000bede8eedU, 0xbf66a869bf1ef174U, 0xbf0e6695be02fee5U,
  0xbeef884880000000U, 0xbf4b547680000000U, 0xbf0f4ef2bf7f3b3aU, 0xbec1c66abef575a6U,
  0xbf81571bbe8b98e8U, 0xbf057f7780000000U, 0xbf8e814dbf359db0U, 0xbf0eea5fbeb0fdbaU,
  0xbf7a6416bf5ceaa6U, 0xbf35e22abf2b99fdU, 0xbf6f2ba9bebff750U, 0xbf8762cebe89408cU,
  0xbe46f592be388a89U, 0xbf11879fbf330ab0U, 0xbf4dc3e4bf4ec9a1U, 0xbf641221bef960cbU,
  0xbf37395abf3a84c9U, 0xbedc7ed0bf642faeU, 0xbf41af63bf3515cdU, 0x80000000bf8c90cbU,
  0x80000000bea52caeU, 0x80000000be900a07U, 0xbf03b18ebf04acbaU, 0xbf7ed1abbe521e36U,
  0x80000000bea5ef50U, 0xbf1664a0bf1c78faU, 0xbf2d059580000000U, 0xbf25c8bc80000000U,
  0xbf49c35dbf5f44bdU, 0xbf3462b1bf05daf2U, 0xbf60cf8dbe1cc06fU, 0xbf8aa259bda1b65dU,
  0xbf7de4afbf6a83c2U, 0xbe925e33bed75561U, 0xbf180867be9dda45U, 0xbf47c94e80000000U,
  0x80000000bf2e783bU, 0xbf3c7cd680000000U, 0xbf87067abf57408cU, 0xbf0d6372bd8606ffU,
  0xbf7fde5bbdd83519U, 0xbf8176e5bf552ce7U, 0xbf823985bf716b53U, 0xbf0d56f1bea08342U,
  0xbe96def9bd948cbfU, 0xbf3efd60bf471ab3U, 0xbdb60483bf145fdfU, 0xbe6a4170bf00ad66U,
  0xbf63a01cbf623e1eU, 0xbf0afda080000000U, 0xbf0dd864bf33ac6eU, 0xbe7fca0abecae324U,
  0xbf7725d080000000U, 0xbe03f0f2bed4dd74U, 0xbf0ba4a3beee0991U, 0xbf916826bf23b34fU,
  0xbee8409bbb0eb9acU, 0xbf1f5cebbf34161dU, 0xbf77b2debf3bb469U, 0xbf31eab2bf566253U,
  0xbef27fcabef5dd7eU, 0xbf4fa05cbf26baadU, 0xbf5d29ffbebe31cfU, 0xbf60e46dbeb24d64U,
  0xbf826e1abf17beecU, 0x80000000bf1fa96cU, 0x80000000bf783298U, 0xbf71f1b6bf893017U,
  0xbf2dd3c2bf84a8acU, 0xbf14e3e2bd6d7f7bU, 0xbe97523fbf1f23e0U, 0xbf320cd8bf5461dbU,
  0x8000000080000000U, 0xbf3875c6bf9a69f5U, 0xbf827417bf131e91U, 0xbee776d2be96edb5U,
  0xbec7dec8bf8a97d7U, 0xbf265fa7befa4c47U, 0xbf852a7fbde76291U, 0xbec01e10bf20b0aaU,
  0x80000000be584cc6U, 0xbea99515bedd30e3U, 0xbef70c4480000000U, 0xbf2d6b58bf82ed43U,
  0xbef8a07c80000000U, 0xbf5e8f51bee81f04U, 0x80000000bf3648d8U, 0xbf602f69bf7126edU,
  0xbf2ae2d7bf4efa55U, 0xbf63b622bf2a23aeU, 0xbf6ae62fbf5e3977U, 0xbf62d608bf6f5b64U,
  0xbecf1da4bea5baf3U, 0xbf7e3726bf47387fU, 0xbf655c1bbf91e998U, 0xbd9d5396beea951bU,
  0xbf5a073080000000U, 0xbf85232dbf7a686fU, 0x80000000bf922691U, 0xbf845524bf544159U,
  0xbe9521b6bf9a99d4U, 0xbf824010bf780b52U, 0xbb04313fbeb43bc7U, 0xbf5471f0bf56dc40U,
  0xbf87392fbf5e348cU, 0xbd41f07abf5a8806U, 0xbf5dc160bf55ded7U, 0xbf5cd5ee80000000U,
  0xbec9ed7dbf67c4b4U, 0xbf07df2fbf694e89U, 0xbf6efbdfbf641e1fU, 0xbe23cf34bf0faa90U,
  0xbee552f6be0052eeU, 0xbee44eadbf2b539dU, 0xbf486b43bda825c8U, 0x3edfc90e3edffa49U,
  0x3ed672d83ee005fdU, 0x3edfda633ee03c1aU, 0x3ee019083ee03d81U, 0x3ee00a8b3ee0796cU,
  0x3ee0314f3ee073afU, 0x3eddc8963ee02e50U, 0x3ee0351a3edefa63U, 0x3ee020c73ee01c71U,
  0x3edf7d0b3ee02268U, 0x3ee03ded3ee03764U, 0x3ee00a653e8d1198U, 0x3ee067473ee06212U,
  0x3ee06aad3ee0104aU, 0x3ee025003ee02febU, 0x3ee03f193ee03a61U, 0x3edf96b03edf80f9U,
  0x3ee070c03edf49f8U, 0x3edeb70c3ede31d0U, 0x3edfcec03ee03788U, 0x3e8c45db3ee00414U,
  0x3ee03c773edfc42dU, 0x3edffd8a3ee062c2U, 0x3ee004dc3ee06a38U, 0x3ee011303edfcc96U,
  0x3ee002663ee01d0cU, 0x3ee0a27f3ea60424U, 0x3ee0473e3fccdf56U, 0x3ee026453edff0f3U,
  0x3ee011e13ee00bffU, 0x3ee0200f3ee01cccU, 0x3ed5a7c73edfcc8dU, 0x3ee0264f3edfced5U,
  0x3edf43f03edf9fe4U, 0x3edd2f5e3ee092d4U, 0x3ee057803ee01de3U, 0x3ee0057e3ee06f81U,
  0x3edff86b3edefa26U, 0x3ee0360b3edfb9f3U, 0x3ee08bc03ee02feaU, 0x3ee145733ed4c5f4U,
  0x3ee07e663edff71bU, 0x3ec927513ee00b61U, 0x3ee011c23ee03147U, 0x3edfefbc3ee018c8U,
  0x3ec89a453ed8896dU, 0x3ee013303edfd176U, 0x3ea4b7d93edffc4cU, 0x3edff8263ee077e4U,
  0x3f2d00ab3ee00ad7U, 0x3edff0cc3ee03bdeU, 0x3e8c89b73ee023d8U, 0x3ec90bd53ee01944U,
  0x3eddf4d03ee00bc0U, 0x3ee0428e3edffea9U, 0x3edfaebc3edfeae3U, 0x3ed0dc893ee02deaU,
  0x3ee012343ee07e05U, 0x3edffd8b3ee0358fU, 0x3edf9e4d3ee028fbU, 0x3ee0299c3ee020ecU,
  0x3edff53c3ee011fdU, 0x3edfe4543edf7a2bU, 0x3edfeaef3edfff4bU, 0x3edfad5e3ee01a7bU,
  0x3ee03ce53ee25c43U, 0x3ee035e33ee02925U, 0x3edf3c253ee0709eU, 0x3ee015d03ee0222fU,
  0x3edf892b3edfe5feU, 0x3edd77123ed9066fU, 0x3ee07c303ee01d5fU, 0x3ee005123ee05654U,
  0x3ee049f93ee020b4U, 0x3ee023d93edffdf4U, 0x3ed9ed023edfdd09U, 0x3ee012643ea1a0bdU,
  0x3ee027ad3ee0049bU, 0x3ee030203edfbb6bU, 0x3ec5d24f3ee040caU, 0x3edfed583ee00c64U,
  0x3ee07d983ee03a8bU, 0x3edfd90b3ee00b8eU, 0x3ed5f67e3edffebfU, 0x3ed0dad23ee05f24U,
  0x3ee00f9e3ee03ca3U, 0x3ee03dfe3ee5ab5cU, 0x3ee0379f3f3ef18cU, 0x3ed4e00d3ee04f7bU,
  0x3ee0020b3edfe70bU, 0x3ee020e23ee04557U, 0x3edffaa93ee01c02U, 0x3edf7ef33edff655U,
  0x3ecf01d73ee03b59U, 0x3ee0d9543ee02807U, 0x3ee00c0e3ee00e69U, 0x3ee018663eef64a5U,
  0x3ee06edb3edffb72U, 0x3edff3463ee02bc9U, 0x3ee03b6f3ee0535dU, 0x3ee0301a3ee03fe9U,
  0x3ee06d2a3edfd7acU, 0x3eb99d543ed77b40U, 0x3ee0a32a3ee03b6fU, 0x402a73924119024aU,
  0x40cb95593fdd6995U, 0x40f781364051684bU, 0x4075aeb73f81fa10U, 0x8000000000000000U,
  0x8000000080000000U, 0x80000000bf124a98U, 0x80000000bf9d80a7U, 0x8000000080000000U,
  0x8000000080000000U, 0x8000000080000000U, 0x8000000080000000U, 0xbffc59a380000000U,
  0x8000000080000000U, 0x8000000080000000U, 0x8000000080000000U, 0x8000000080000000U,
  0x8000000080000000U, 0x8000000080000000U, 0x8000000080000000U, 0x8000000080000000U,
  0x8000000080000000U, 0x8000000080000000U, 0xbec8bad380000000U, 0x8000000080000000U,
  0x8000000080000000U, 0x8000000080000000U, 0x8000000080000000U, 0x8000000080000000U,
  0x8000000080000000U, 0xbff5863d80000000U, 0x8000000080000000U, 0x8000000080000000U,
  0x8000000080000000U, 0x8000000080000000U, 0x8000000080000000U, 0x8000000080000000U,
  0x8000000080000000U, 0x80000000bff2d0a1U, 0x8000000080000000U, 0x8000000080000000U,
  0x8000000080000000U, 0x8000000080000000U, 0x8000000080000000U, 0x8000000080000000U,
  0xc0ca5d9380000000U, 0x8000000080000000U, 0x8000000080000000U, 0x8000000080000000U,
  0x8000000080000000U, 0x8000000080000000U, 0x8000000080000000U, 0x8000000080000000U,
  0x8000000080000000U, 0x8000000080000000U, 0x8000000080000000U, 0x8000000080000000U,
  0x8000000080000000U, 0x8000000080000000U, 0x8000000080000000U, 0x8000000080000000U,
  0x8000000080000000U, 0x8000000080000000U, 0x80000000c16ecabeU, 0x8000000080000000U,
  0xc0232bf280000000U, 0x8000000080000000U, 0x8000000080000000U, 0x8000000080000000U,
  0x80000000beabd6cdU, 0x80000000c0821197U, 0x8000000080000000U, 0x8000000080000000U,
  0x8000000080000000U, 0x8000000080000000U, 0x8000000080000000U, 0x8000000080000000U,
  0x8000000080000000U, 0x8000000080000000U, 0x8000000080000000U, 0x8000000080000000U,
  0x8000000080000000U, 0x80000000bce151ffU, 0x8000000080000000U, 0x8000000080000000U,
  0x8000000080000000U, 0x8000000080000000U, 0xbf34226b80000000U, 0x8000000080000000U,
  0x8000000080000000U, 0x8000000080000000U, 0x8000000080000000U, 0xbf0dc39180000000U,
  0x8000000080000000U, 0x8000000080000000U, 0x8000000080000000U, 0xbe4720acbd7c95a4U,
  0x8000000080000000U, 0x8000000080000000U, 0x8000000080000000U, 0x8000000080000000U,
  0xbe6530d680000000U, 0x8000000080000000U, 0x8000000080000000U, 0x80000000be2e1d9cU,
  0x80000000bd2538a2U, 0x8000000080000000U, 0x80000000bc80d73aU, 0x8000000080000000U,
  0x80000000ba8ed23cU, 0x8000000080000000U, 0x8000000080000000U, 0x8000000080000000U,
  0x8000000080000000U, 0x8000000080000000U, 0x80000000bd265366U, 0xbe7e719480000000U,
  0x8000000080000000U, 0x8000000080000000U, 0x8000000080000000U, 0x8000000080000000U,
  0x8000000080000000U, 0x8000000080000000U, 0x8000000080000000U, 0x8000000080000000U,
  0xbd6531e180000000U, 0x8000000080000000U, 0x8000000080000000U, 0x8000000080000000U,
  0x8000000080000000U, 0x8000000080000000U, 0x80000000bd5d2a13U, 0x8000000080000000U,
  0x8000000080000000U, 0x8000000080000000U, 0x8000000080000000U, 0x8000000080000000U,
  0x8000000080000000U, 0x80000000bdd33ed4U, 0x8000000080000000U, 0x8000000080000000U,
  0x8000000080000000U, 0x8000000080000000U, 0x8000000080000000U, 0x8000000080000000U,
  0x8000000080000000U, 0x8000000080000000U, 0xbedd695d80000000U, 0x8000000080000000U,
  0x8000000080000000U, 0xbe379e9680000000U, 0x8000000080000000U, 0x8000000080000000U,
  0x8000000080000000U, 0x8000000080000000U, 0x8000000080000000U, 0x8000000080000000U,
  0x8000000080000000U, 0x8000000080000000U, 0x8000000080000000U, 0x8000000080000000U,
  0x8000000080000000U, 0x8000000080000000U, 0x8000000080000000U, 0x8000000080000000U,
  0x8000000080000000U, 0x8000000080000000U, 0x8000000080000000U, 0x8000000080000000U,
  0x8000000080000000U, 0x8000000080000000U, 0x8000000080000000U, 0x8000000080000000U,
  0x8000000080000000U, 0x8000000080000000U, 0x8000000080000000U, 0x8000000080000000U,
  0x8000000080000000U, 0x8000000080000000U, 0x8000000080000000U, 0x8000000080000000U,
  0x8000000080000000U, 0x8000000080000000U, 0x8000000080000000U, 0x8000000080000000U,
  0x8000000080000000U, 0x8000000080000000U, 0x8000000080000000U, 0x80000000bfe29b67U,
  0x8000000080000000U, 0x8000000080000000U, 0x8000000080000000U, 0x8000000080000000U,
  0x8000000080000000U, 0x8000000080000000U, 0x8000000080000000U, 0x8000000080000000U,
  0x8000000080000000U, 0x8000000080000000U, 0x8000000080000000U, 0x80000000bf13849fU,
  0x8000000080000000U, 0xbee4981980000000U, 0x8000000080000000U, 0x8000000080000000U,
  0x8000000080000000U, 0xbf0e724dbec71aafU, 0x8000000080000000U, 0x8000000080000000U,
  0x8000000080000000U, 0x8000000080000000U, 0x8000000080000000U, 0x8000000080000000U,
  0x8000000080000000U, 0x8000000080000000U, 0x8000000080000000U, 0x8000000080000000U,
  0x8000000080000000U, 0x8000000080000000U, 0x3f4a634a3f4a7816U, 0x3f41ad423f4aafc9U,
  0x3f4a77553f4ab5bfU, 0x3f4ac9df3f4aa775U, 0x3f4ac9543f4ace09U, 0x3f4aafcf3f4aac71U,
  0x3f48cb653f4acd98U, 0x3f4ac31b3f49e480U, 0x3f4a93f43f4acb76U, 0x3f4a2cb43f4aa0d5U,
  0x3f4aaadb3f4ac83fU, 0x3f4aaf563efec441U, 0x3f4a99c63f4ad2dbU, 0x3f4ad1013f4aa75dU,
  0x3f4ac7123f4acd8dU, 0x3f4aac333f4acbf9U, 0x3f4767c33f49fea3U, 0x3f4aa0b03f49f140U,
  0x3f496d043f48d810U, 0x3f4a2c743f4aaffcU, 0x3efd4d893f4ac557U, 0x3f4a81003f4a55b2U,
  0x3f4ac22f3f4abbedU, 0x3f4aa7643f4ac98dU, 0x3f4acd673f4a7fe1U, 0x3f4aaeb43f4ab17cU,
  0x3f4ac0443f162357U, 0x3f4ad82d3fdf75c7U, 0x3f4aac2c3f4abb2bU, 0x3f4ab4653f4aac45U,
  0x3f4a93643f4aae9eU, 0x3f410de33f4a76c4U, 0x3f4aafc93f4a6d4dU, 0x3f49fa0a3f4a1fb7U,
  0x3f4818be3f4aff28U, 0x3f4abddc3f4acfffU, 0x3f4ab11f3f4aa5bfU, 0x3f4aa3cb3f49a8f7U,
  0x3f4abd5c3f4a2687U, 0x3f4ab9563f4aaef3U, 0x3f490c323f4073bbU, 0x3f4aad093f4ab1aaU,
  0x3f3567163f4aa8d0U, 0x3f4aaf853f4aa929U, 0x3f4a80f33f4a97b4U, 0x3f357b3d3f43ac15U,
  0x3f4ab0963f4a1d5aU, 0x3f14a1c03f4ac5afU, 0x3f4aa53a3f4acf04U, 0x3f6af1783f4abdf0U,
  0x3f4ac0d43f4acefbU, 0x3efe4d173f4ab175U, 0x3f358a0a3f4a8789U, 0x3f48f27a3f4ab349U,
  0x3f4aae783f4aafbdU, 0x3f4a497d3f4a5801U, 0x3f3d0de63f4a99b3U, 0x3f4ab40e3f4acff0U,
  0x3f4aac683f4aca0bU, 0x3f49f6063f4acf2fU, 0x3f4abdf83f463606U, 0x3f4aa14a3f4accf6U,
  0x3f4aa4903f4a1a80U, 0x3f4a9f5e3f4aaef3U, 0x3f4a41963f4aa816U, 0x3f4ac92f3f4b66bbU,
  0x3f4a9a943f4ab048U, 0x3f49b8473f4aaf75U, 0x3f4aa68f3f4ac41fU, 0x3f4a3cb13f4a9b9aU,
  0x3f4881d33f433422U, 0x3f4a94693f4aa263U, 0x3f4a85eb3f4aae1bU, 0x3f4a9e8a3f4ac4beU,
  0x3f4ab3d63f4aa856U, 0x3f4554da3f4a1308U, 0x3f4a95e23f1228f7U, 0x3f4aa4583f4ac20bU,
  0x3f4aafce3f4a131bU, 0x3f33111f3f4aa956U, 0x3f4a8e573f4ace0dU, 0x3f4aa63f3f4aa6abU,
  0x3f4a4fba3f4abec0U, 0x3f41954d3f4aafc0U, 0x3f3cd7433f4ac958U, 0x3f4ace3e3f4ab581U,
  0x3f4ac52f3f46fd24U, 0x3f4accd33fc2559bU, 0x3f406d693f4aa672U, 0x3f4abd903f4a993bU,
  0x3f4a8faa3f4aaa10U, 0x3f4aaa963f4ab30dU, 0x3f4a4fb83f4a4e6aU, 0x3f3b67443f4ab1ceU,
  0x3f4abda33f4aa997U, 0x3f4ac4583f4aa712U, 0x3f4a822a3f5044b5U, 0x3f4ac45b3f4aa08dU,
  0x3f4a90a23f4aa6fdU, 0x3f4ac55e3f4abd15U, 0x3f4aace83f4ac94dU, 0x3f4aa77c3f4a7affU,
  0x3f27f2f53f42a3f4U, 0x3f4ac3953f4a9643U, 0x400f8fae3f4dace3U, 0x3f9edc6e00000000U,
  0x3fc946d23f4e352aU, 0x0U, 0x3fbd36183e370ae4U, 0x400b6bce3f0719f1U,
  0x3fd6a16d00000000U, 0x3f9afaa43fdb7d28U, 0x3faab1003f7ff009U, 0x3fc9d3473f8fb91cU,
  0x3f9f33713fcbafefU, 0x3f99e5a03f4bd239U, 0x3f35c747U, 0x3fb6be9e3f3251b4U,
  0x3ef81f713fb45896U, 0x3ffa383c3f8ab7a3U, 0x3f8b60313fa95027U, 0x3f916b733fb35f1eU,
  0x3e29668f3fc10cceU, 0x3f3694623fb21312U, 0x3f91c0c83fcb0efdU, 0x3f65552d3fa12183U,
  0x3f7fda78U, 0x3e89fb453fbfad06U, 0x3faecf743fb7a6ebU, 0x3fb26dd23f576a22U,
  0x3fba2c943f80e778U, 0x400f69623f48ae28U, 0x3f9eba1d3faba9f7U, 0x3ff126693f8d2430U,
  0x3fa8a351U, 0x3fbbe99c3f716532U, 0x3f2e7f5a3f46ebc3U, 0x3f977b843fd9303aU,
  0x3fcbe8863faf1c13U, 0x3fab5a2e3faf3a58U, 0x3f96a0133f935357U, 0x3fbe15ab40055ae6U,
  0x3f7ed90d00000000U, 0x3f9e2a203f94d51fU, 0x3de27bb83f84b531U, 0x3f9e927c3fba7342U,
  0x3f8bc3ce3f03ca28U, 0x3fb8967e3f960cd5U, 0x3e697bed3fb19f7bU, 0x3fc2cebbU,
  0x3f03fb7d40160c60U, 0x3fafe0833f874cb1U, 0x3f19a7723f615d82U, 0x3fd049ac3fbadc73U,
  0x3f84fc7f3f96c88eU, 0x3fbc17e93f90af03U, 0x3f56871f3e98a1d1U, 0x3ff5f6b23f948cbeU,
  0x3fb09058401117ffU, 0x3fbc16013fa4a269U, 0x3fb73f3c3f9675f7U, 0x3fcad21f4006a4ccU,
  0x3fa7d9db3f96f12cU, 0x3fb15a163f1591d9U, 0x3fe0789b3fba00f7U, 0x3fbb84a73f921dadU,
  0x3f09d7d03fc57bb2U, 0x3f8445a500000000U, 0x3fb80a433f2df5a8U, 0x3e95c53d3fb88df1U,
  0x3e660ace3fac335aU, 0x3fb0b0a540012854U, 0x4013c47c3fc25401U, 0x3f6c335a402b3109U,
  0x3f51519200000000U, 0x3f8655093f823f1aU, 0x40024f643f9723c4U, 0xbdee0039be9ebd98U,
  0xbf1f0ddbbe70b13cU, 0xbefd0b34bf0f1c45U, 0xbf0ba34a80000000U, 0xbe0ee787bd1882d8U,
  0xbf59658ebea652abU, 0xbf07b74dbd9a2bd1U, 0xbd6b6bf2bf9ebcd4U, 0xbf7e3420be8f8a12U,
  0xbec0c6b6bfc96311U, 0xbeda3de1be68df42U, 0xbfa9aa2dbec0c8d8U, 0xbe441179be563e95U,
  0xbe5331d0be6d2f12U, 0xc01ba891beacc456U, 0xbf02217dbe20e220U, 0xbec48089be8346ecU,
  0xbeb0171abf250021U, 0xbeacbac0bde8d289U, 0xbfeef6fb80000000U, 0xbf1c1e32beed42c8U,
  0xbf47718ebe9ff9dcU, 0xbf3cec88bf1f8f25U, 0xbeb46192bf81b930U, 0xbea56b4fbe8a6eceU,
  0xbe80fb85bf93c842U, 0xbed3ca2ebec363acU, 0x80000000bef1e2d5U, 0xbf832655bdeac09fU,
  0xbef3aa4abe9e8142U, 0xbf58beb3bdf9426eU, 0xbeca0849bf00df4bU, 0xbef35000bfc738eeU,
  0xbf622aa6bee261ffU, 0xbe8cc356bfa0d105U, 0xbede14ab80000000U, 0xbeb50e02bfc232b0U,
  0xbf0a1279beb58995U, 0xbea2db65beb6e531U, 0xbf8aa696becdcffaU, 0xbea3fbcdbe1b55c3U,
  0xbecfca25beccc60bU, 0xbeed2fcbbf589d51U, 0xbf6f728480000000U, 0xbe6836e9be8a80faU,
  0xbec32b8abea29ed4U, 0xbec89816bf00473fU, 0xbe92b47dbea13775U, 0xbe82f73bbf7952e7U,
  0xbf0520f1be9b36ddU, 0xbd63c3f8bf0ae6afU, 0xbeca9b93bf4fd90eU, 0xbfd42668be173a00U,
  0xbf2455d0be652bc3U, 0xbedd598fbec78309U, 0xbf0d022dbf69eb03U, 0xbebb995dbeb15782U,
  0xbeafffb9bec0c44cU, 0xbe8c7609bf902265U, 0xbea94037beae770dU, 0xbeffe9bfbe4329b7U,
  0xbf04fb21bf0af167U, 0xbef4dcabbc071d1cU, 0xbed867b3bea03562U, 0xbe4f61bcbe7f5468U,
  0xbec08248bf3f88bdU, 0xbf07cafdbe4dba6cU, 0xbe68926bbe7d4f5bU, 0xbf2e06b6bcd084bfU,
  0xbee31961beb2c42dU, 0xbe1df367be884ea9U, 0xbee42d16bfffb1b5U, 0xbee36f83bead0ce7U,
  0xbe9cb6eebedd6adfU, 0xbfb9adf2bf831512U, 0xbe050329be52fa1dU, 0xbed415d4bf1c89c6U,
  0xbfa12a53bf4641ffU, 0xbf40182fbdf3f086U, 0xbeb8e44fbed2ad02U, 0xbdf77323bcd165bbU,
  0xbe520504beecafceU, 0xbe1dcbd7bea84661U, 0xbedc4e76bf6052a4U, 0xbd6390b3bea504c0U,
  0xbe36d78dbf7be8aaU, 0xbf168c8bbf104603U, 0xbf7993a880000000U, 0xbe7a9c21be941644U,
  0xbf2af9b5beb694a1U, 0xbe0c6bf0beb3f18fU, 0xbfb0d229bda74bc0U, 0xbeaf9ef8be7da4deU,
  0xbeda9c34bf88508aU, 0xbfaa11fabe987b6eU, 0xbed392b8bf81948bU, 0xbee7be73bee1e8f4U,
  0xbf67ebabbf2042e9U, 0xbe504e24bf037deaU, 0xbf70bab7bedecffeU, 0xbe0039c4beaf64e2U,
  0xbea1d368bf787849U, 0xbed8fd67becc3d88U, 0xbe85c050bfa71739U, 0xbeb4c32ebf077d4eU,
  0xbee5f192bc6ecb34U, 0xbe27d909bdf22a4fU, 0xbf196b35bf0aeedeU, 0xbeb48039bea65eecU,
  0xbee8baa9bf2a6ff1U, 0xbf8bb062be533a7dU, 0xbe521d56bf1861b4U, 0xbe76a95cbe27c2abU,
  0xbf3ee14abee1837cU, 0xbeadf45cbf99058bU, 0xbe7b7f01c0c8aaa7U, 0xbede92d1beb284dcU,
  0xbf7edaa4bf2feb60U, 0xbeb8cb09bed0951bU, 0xbf2b2727bebcdfecU, 0xbf17fe52bee4cf0cU,
  0xbf0c8ecfbe9e28dfU, 0xbea27d12beed8aefU, 0xbee20b5280000000U, 0xbecc4ae6bf184879U,
  0xbec79e3ebf1d5225U, 0xc002f7ebbe280527U, 0xbf6c63d3bfc6dcabU, 0xbf1ba39fbee1ff90U,
  0xc055c9efbefc558dU, 0xbef4611abec6f4b6U, 0xbedfafcebf07bc08U, 0xbee0c402bed6f9a6U,
  0xc02f6b00c0308c3bU, 0xbea3e5c2bebcee01U, 0xbef35800bec8ca1aU, 0xbf55f90ebeb15324U,
  0xbf4a3ea2beab6a90U, 0xbec1b767bf1de5bcU, 0xbf95f71cbeb49cb7U, 0xbe028f57bec13e61U,
  0xbecb5d3bbef83961U, 0xbf1e3838be3cbc77U, 0xbf074832bf10ec16U, 0xbf1cac56c0001442U,
  0xbeace996bf76b0b3U, 0x41a3b252c19625caU, 0xc10f0ddc40494429U, 0xbe0fb02ec147a934U,
  0xc14d2bbac12e3560U, 0xc0bfb8ecc1abdd08U, 0xc19cc175c0af85bcU, 0x41c325283fd1a92dU,
  0xc043f2ef40f7de6cU, 0xc03e2e0ac0a80c78U, 0xc018d757c05d2d46U, 0xc23def89c10cb19dU,
  0x3faffd8bc0f39e8fU, 0xbe10305f405da765U, 0x3f9ed261402203f5U, 0x4177299cc15de2c0U,
  0x41673fb3c13deec8U, 0xc0cf8263c1db5392U, 0xc00b60c2c0e16a87U, 0xc09509adbf8734dcU,
  0x410820b140ce84e0U, 0x4128fce1c23ece3aU, 0xc130309bc1b605a9U, 0x40bba33ec010430fU,
  0xc1e39157c0d66d7eU, 0xc0e6a5d03e42ac24U, 0x40135ebc41183a2bU, 0x40309256c17a58dcU,
  0x4063bdfc41977d25U, 0xc09de1f6c14510a2U, 0xc089b02a40562739U, 0x4236b271c110a263U,
  0xc0e7ccacc19d7f5dU, 0xc196720cc1f32410U, 0x41c91a633f8f2dc8U, 0x41895880c157bc88U,
  0x411910f641e18b24U, 0xc1816dcb3fc91906U, 0xbe499f16bfd95158U, 0xbe29941340a5df8aU,
  0x3caf5a6ec134ea93U, 0xc2077d9cc0ca9e90U, 0xbed9283741676993U, 0xc13e39c64195b573U,
  0xc1c8cbd14080ad0fU, 0xc10f24d64051ee04U, 0xc1477ab23f0fc1edU, 0xc0ddf9bd40a892cfU,
  0xbfb1ab3d4153e412U, 0xc08dc2fdc0a18607U, 0xc15cb8ad40939d1cU, 0xc107d7724247138cU,
  0x40df775f40a6101bU, 0xc0898ad8c01a5bf8U, 0x402560724046a6eeU, 0x41274fe7413dbe78U,
  0x418b0db2c10b1261U, 0xc1942f0e3e4d9a57U, 0xc15092aac1204e63U, 0x3e15aa4fc0db9454U,
  0x406e3423c19d461fU, 0x419db0ec41b7fbe0U, 0x41080ec3c12258c9U, 0x41ceaed0c1c1ffafU,
  0xc112ff34c1c883a6U, 0x411f74a4406b02b7U, 0xbdfb11efc1ed558eU, 0xc005ff95c0b86db9U,
  0x40bf40d1c147a84cU, 0x418b1251400374d3U, 0x40c1830d40fecb38U, 0xc216fff041faebaeU,
  0xc093b54cc134ee3eU, 0x41b9c05b4198c056U, 0x4119e9c141b14ea7U, 0xc0e64043c1008611U,
  0x4045c0c3c0e8c407U, 0x41dda8074109dc10U, 0x40f6accd4104afbcU, 0xc10db7b5c000c965U,
  0x41035b57409e6147U, 0x415e7bd241e1d615U, 0x4130d279419dad73U, 0xc1c3af0ec18bbb53U,
  0xbfab1075c1e9523bU, 0xc09e510340a35e67U, 0xc127453ac1aa5a82U, 0x40e91eeebf6fd252U,
  0xc0fe9d8641693595U, 0xc0a1492a411b9831U, 0xc01e974cc08cdae1U, 0x4230824a40ece635U,
  0xc09e09fb4034d935U, 0x40e5295fc1dce22bU, 0x41ae0d52c14f070eU, 0xc162d830c1175f06U,
  0xbfe64ea9c0a046fbU, 0x40c4ac3b40fa540dU, 0x412d36084043881bU, 0x406b6665c159d3a4U,
  0xbf50c646bf1019f8U, 0xc20c08a8c2052db5U, 0x4128ea9341d12251U, 0xc16112ba3db77b2aU,
  0xc0de281ac1786b89U, 0x420acfdd414a1a02U, 0xc13585943e766e66U, 0x40d24d8b41112eabU,
  0xc08370184125206eU, 0x40f6f84f410231b7U, 0xc0759a38c102e9ddU, 0x41ebae52c1e1b078U,
  0x3db105e540204cb2U, 0xbe880924c0f2e6f9U, 0x418362db408baef4U, 0xc1d443a7c002f15dU,
  0x40277460c1900638U, 0x40a4476b409beed4U, 0xc02785dd4136c1ebU, 0x40442da3be9b0e3dU,
  0xc08608b741423e9aU, 0x41bc499ec2290c7aU, 0x40bf629b4086ebe5U, 0x406f62de4097e74eU,
  0xc0e21876c102c626U, 0xc105454541d4d492U, 0xc13cb1b4bf70d798U, 0xc14e9243bf91aa6dU,
  0xc0c69a34c088c4eaU, 0x417da787be911899U, 0x40595fdcc0d44351U, 0x411a6de9c21acf7cU,
  0x4028e93bc0e7fb47U, 0x4187c57d4052816bU, 0x41069fdec081ec7eU, 0xc15129514137af7eU,
  0x4130f68e4134ce47U, 0x40ceb3243f577728U, 0x410f49cbc08c20f6U, 0x4147cf61c074edb6U,
  0x3f39466840844c9fU, 0xc0b1c7c94217ab46U, 0x402fbddabf3d09bdU, 0x3f67c47e3f2afa3eU,
  0x41152aa141178a80U, 0x41879e374195a527U, 0xc149522540246f84U, 0xc090b528c0658ba1U,
  0xc084d8bd412bbd51U, 0xc1499390bfc8189fU, 0x40bb40c1bfc5ad39U, 0x41663a1ec1e5d120U,
  0x407a65bdc1e2b803U, 0x4063a998c1d7e070U, 0x4117fc77416e3b95U, 0xc07d0b3040d09fceU,
  0x407e82f4bfd12570U, 0x3eb8cc1bbff25429U, 0xc06189bbc034dad5U, 0xc16b0c11400b64bbU,
  0xbf5c6131c1817fc0U, 0xc216859b3fdef22eU, 0x40de21cf40d4375bU, 0xc1f327c540e12ca2U,
  0xc0db920bc13ee1a8U, 0xc0676844421dfe08U, 0xc09d364841beebf0U, 0x40b75e67c118d607U,
  0xc170cfd4c102c762U, 0x4173ae5440071473U, 0x40782b1140fcbcfeU, 0x40931797c186d126U,
  0x412e6af1c18a8416U, 0xc0cea145c0e07e25U, 0x41dd5a204192ebf1U, 0xc09f7299414c3cb9U,
  0x3f07fcf0c205a05fU, 0x4081bf86c1c769eaU, 0x3f5668a54189eafeU, 0x41c10e334122ccb6U,
  0xc12e700cc1276c9fU, 0xc084cd3dc23fd0adU, 0xc0bdcaf4411667e5U, 0xc125cc234195fdf4U,
  0xc1f58f213fa468f0U, 0x413a9281c01bd951U, 0x3f4d99b841033868U, 0x40a0ad7940ffd3e8U,
  0xc0616a4841250501U, 0xc1222c924006f03bU, 0x3e9ef5f240b5bd83U, 0x4188e199c219402eU,
  0xc07069b1c0d2926bU, 0xc0bee591c02c8c51U, 0xc0b63bf0c0ef2d4aU, 0xc0c1da6bc1d62c02U,
  0xc1825c09405d31f0U, 0xbecce6ccc1301435U, 0x404d2a9ac0f06e35U, 0xbf455001408e0b11U,
  0x40489c55c0bcc17cU, 0x42488e71c216b465U, 0x40a298c1403ecd57U, 0x41a88c03421e1d2fU,
  0xc0a4633440dcf9d0U, 0x3f97136740b28235U, 0xc03a065f4095ad4cU, 0x3fc8f2c0c1309d03U,
  0x412792ed41346619U, 0x40a836a63efeb669U, 0xc01a8719411af3f1U, 0xc1d322704226c8b4U,
  0x40a3007641e243afU, 0x3f357fc0c129a7deU, 0xc19fb291c1b8304dU, 0xc1228e1040e9559eU,
  0x3ea3cf07c0c23694U, 0x41c7330bbfef87d4U, 0x41052293c202737bU, 0x3fdad9ddbf613a8aU,
  0x405cf088c17aec87U, 0xc1d9743dc1dcd8ceU, 0x412f8dd3bf635753U, 0x41ebecb8c10312faU,
  0x400196d7c183031aU, 0x411031573f12a955U, 0xbfb64247409fbc06U, 0xc0d45cadc1555711U,
  0xc17d11e6412b8d88U, 0xc147fa6840b18b38U, 0x40473b084098f718U, 0xc12c3933c0eda145U,
  0x410a30e1c1085ce8U, 0x415445c43fdddb4bU, 0xc18780cec126b0feU, 0xc16857e641109e9eU,
  0xc1bcfbbc4206590aU, 0xc0ea3842417a553dU, 0xc0bc79f840d6e81eU, 0xc1a7a97dc190a092U,
  0x409c2ca0c05a53d9U, 0xc17caab7c1a12b7bU, 0xc18b2315c1a871efU, 0xc101f9434159f1adU,
  0xc1815249417632c5U, 0xc203b2a1412ac522U, 0xc18bee16408f3548U, 0xbf8740b5418a595fU,
  0x4105211ac0ebcc24U, 0xc1bfd298c13f838eU, 0x40dbb1b8415992fbU, 0xc13ce0ef42165a0fU,
  0xc0627ce441a25875U, 0xc18e4d79c05069b4U, 0x4102a4f2c126338dU, 0x403ef942c1141c89U,
  0xc16525fb419b7272U, 0xc0f020b2419e9e05U, 0x40fabb39c1362956U, 0xbe85d2ebc0cb13b9U,
  0x40c616a2c087095aU, 0xc1c1ef7e42263f3dU, 0xc0927156c1e1013dU, 0x402b1d1240717a74U,
  0x412cbb084192ed13U, 0xc10bb322418f3e4eU, 0xc11cdcec4196481cU, 0x410870f83f9a2e74U,
  0x4151ac0e40065de7U, 0xbf77d72540c2eff7U, 0x401d62013fc755beU, 0xc1e9d55e4126ba28U,
  0x40c14abfc180568eU, 0x4164cb93c1183ef4U, 0xc1476ad641af85d2U, 0xc0d79ef5c152d0feU,
  0x41d5e707c02edbd4U, 0xbe26658dc1030998U, 0x3f2cc9f0410af61bU, 0xbdcc6665415d5870U,
  0x41026a55bfe2c10dU, 0xc231db31c125dd61U, 0xc16cd6dcc0adc38aU, 0x4060558d413746adU,
  0xc07b189840d1239cU, 0xc13c6f50c1415bbdU, 0x413c040bc1a4bd4fU, 0xc0cff947c0accffcU,
  0x412af1c53ee3b8a2U, 0x3fe445da4036c9a0U, 0xc11c4e6e4002d8c8U, 0x41e4bacac1bf5cd5U,
  0xc103510dc1e41b17U, 0xc17d0f1fbfb94f2bU, 0xc1fe436840306e7fU, 0x41729475c1121d45U,
  0x411f619440948eeaU, 0xbfc15e494122feeeU, 0xc0e2459a41e381c5U, 0xc119b6583f9df91cU,
  0xbf02e7d6413946aaU, 0x413a07dbc21ab9c2U, 0xc11bc47541a95b47U, 0xc07dd96c409f9876U,
  0x4160a882c153fee6U, 0xc171fe12408c3f9eU, 0x4018c178413664f4U, 0xc118fb9541866a15U,
  0xc1e52db540a90226U, 0xc0e28c55c18753b7U, 0xc0bb4ab2c0542e8cU, 0xbf18b05bc20a359dU,
  0x40ece9e5408e1c32U, 0x3f0d23c5bfc32660U, 0x41e65be2414e3ed9U, 0xc19e40bc410a295bU,
  0x410fe43c3f442308U, 0x40fe45a24126d6c5U, 0x401dbf84c129e018U, 0x4080ef1a40c44424U,
  0x418a5335c03d58eaU, 0x420da10341949147U, 0xc020910ac09ef3d9U, 0x3f755893bf38feccU,
  0x40c07f8040b23ef2U, 0x40ad1c063f1b7858U, 0x412d1bfb4127933fU, 0x4123504d41449ef6U,
  0x4058d798c0dda6cbU, 0x40a2c95e41969e0eU, 0x4088d9edc00955dcU, 0x41f6e83fc08003bfU,
  0xc0587a2dc118fcb9U, 0x4117d0f540e9a4c9U, 0x415666423f62a779U, 0x4177fa5840bbdbe0U,
  0xc0c1eb75bf811abcU, 0x40702a1840d32c49U, 0x40ac6d56bff4066cU, 0x4015375a41095d75U,
  0xc082032d40bcb1b7U, 0x4216f3bd41ad95a5U, 0xc0a911ba401bc644U, 0xc12b699f4167677bU,
  0xbffb1c2a4114631eU, 0x407e4f6b406f1320U, 0xc089bebdc1489c5dU, 0x4013830cc0b7969fU,
  0x408b31f840c6fbf2U, 0x3f4829a840bdc125U, 0xc1150ce7c08d7756U, 0x41d5779941adb54aU,
  0x4105c5b540f82458U, 0x3fa7550041e6b434U, 0xc165065541a75308U, 0x40ff2c33c11ef7acU,
  0xc0eb129cc1850136U, 0xc0c0cdb7c0bc8155U, 0xc04daf8bc07664d0U, 0xc0ed8608c1185163U,
  0x414417a640d70adeU, 0x42242c6b410855ecU, 0xc007cb9c408350f4U, 0xc128410c4054e249U,
  0x40088a233fcf9460U, 0x3d50b8e64170db86U, 0x403b6fda40f8bc12U, 0xc119452dc02f414dU,
  0x40577a8ac0c36833U, 0x3f514440c08846b2U, 0x40965efdbf902fb1U, 0x41ad301a42269618U,
  0xc0bb56124114c247U, 0xc12ebe7f418d2b98U, 0xc045df5b4139266fU, 0x4074fd45c0f75752U,
  0xc148cf11c004b474U, 0xc115b07d3e0d49f0U, 0x405bfc893fb84425U, 0xc08a95803fe7a224U,
  0xc024f5eec103c8abU, 0xc20549bbc1c7b8b9U, 0xc14fd3b441a03a34U, 0xc193bc1841a4014aU,
  0x414e2998c092c230U, 0x4084d89640381348U, 0x40af65e241179fb1U, 0x4004417241bd2276U,
  0xc1c8aed641336805U, 0xc1a1c1debfb6889fU, 0xbe21088cc10b6b04U, 0x4181b2ddc1ecd7f1U,
  0xc0ead361c1840de5U, 0x40bab64bc103d987U, 0xc192c694bfc6bddeU, 0x40ae5083c17b8e77U,
  0xc0fd6b804108de8cU, 0xc14c7da1c134194eU, 0xbe88acc840ef3c8aU, 0xc132bf99c097f5c1U,
  0xc001a93ec0494dc6U, 0x4213e4a4c14f302fU, 0xc17eb9aac18b4171U, 0xc1aec887c2058f32U,
  0xbe93ff94420a4505U, 0x4187d606c1671790U, 0xc0a6cea1bff13dccU, 0x4035c35741335ab2U,
  0x411ad2aac108fc76U, 0x4160d742c1de20e0U, 0x412bb06ec13e749aU, 0xc1810c4f42087f9fU,
  0xc0ae229b4172c5ffU, 0xc0d6a036c070591bU, 0xc09984fac0885cb7U, 0xc0e7c9a6c177044bU,
  0xbf15ab0ac08a664fU, 0x40239008c0928523U, 0xbfddd468bfe45409U, 0xc0f0f466c0c13900U,
  0x40d5cb51403b9af2U, 0xc201451f4243abffU, 0x3f94ebeec1ee61cbU, 0x41ab2ab341895acbU,
  0x41c36b2e419ace47U, 0x40b2537dbfdab6c6U, 0xc02746fb41851ab3U, 0x4196d90940542d19U,
  0x41238d93418b8fa4U, 0x3f8abc19bffd5ecfU, 0x40f7c22f4122f224U, 0x422483c9c181ef92U,
  0xc14a2b0ac123bdb5U, 0xc1224fe1c1e9063fU, 0x40854312418a80caU, 0xc0d0be75413609cbU,
  0xc1294016c0f2eb99U, 0x4186b514c153ab1aU, 0x3eeebf15bec3ab47U, 0xc1546d4241627a0fU,
  0x4075df38c0538f62U, 0x4244d0c4c1642977U, 0xbf5b13b641a5ca09U, 0x4143e53941574f31U,
  0xc0c7e64bc1075923U, 0x3fa4d4a1bf3e9f7dU, 0xc077e80a409f90a1U, 0xc1457fd2bf9d7fdeU,
  0x411cececc052c499U, 0x40be896cc0946f62U, 0x40209f9740cc5f26U, 0xc20bb0c43f35ee1cU,
  0xc0939a73c14442eeU, 0x414c5e4a4095d778U, 0x40f26b65c0367936U, 0xc17ec0eb409382acU,
  0xc164b0b441f59e04U, 0x405eac1f40bd278bU, 0x41b4f5a6c111da53U, 0xc0d337a2c1849d5fU,
  0x401e2d18c15d740fU, 0x410d761341b46a0eU, 0xbe8dbb60418f8f83U, 0x3f561f67c06a0e6fU,
  0xc07dfc9cc0eeed3aU, 0xc09ed5a7405e5115U, 0x3f54f524c17475ddU, 0x3fd1fa3d4115ff3fU,
  0xc11938fc3ea89dffU, 0x3f3294c6c1d81991U, 0x404aa7d8c125087aU, 0x41b5fade42039e74U,
  0x406a914d405602b2U, 0xc20f7551c18da391U, 0xc167e2b9400d1a1dU, 0xc1d648e43f8b7a3bU,
  0x4146f211c161d3ffU, 0x417080cd41123d46U, 0xc09c620d3f1d9d07U, 0xc0b6a4c340be6d1dU,
  0xc1002487c0fd4147U, 0xc0da96a6c20d03d7U, 0xc167b259c1e7f09eU, 0x40b67374bfc1a3fdU,
  0xc18f6311c1149dacU, 0xc01219aac156babeU, 0x3dc0039b40b41393U, 0xc1305a64408219b3U,
  0x4078af6340d7c047U, 0x409a7f27c14e0dbcU, 0xbfa5fa2dc0b06948U, 0xc1bdd911c2103e9dU,
  0xc1293060c1e76dd8U, 0x41944350c181ec67U, 0x41ae1bb341800b4fU, 0x401f4f3dc044c075U,
  0x40c18f6dc1506773U, 0x402cbbc0c0035aa9U, 0xc091db22c14b7852U, 0x3f8d4571bf9c6380U,
  0xc1066c56c1350d45U, 0x42657bc73f9a2900U, 0x3f9c0da64127ad54U, 0x4182fdd541d9f999U,
  0x41cdceb24185af1aU, 0xbf86461bc11c09b8U, 0x417e31ef4197f01cU, 0xc1342dcfc116f9afU,
  0xc0124c884094f5fcU, 0x41bdd6c7bfbc790eU, 0x413b452940fb832bU, 0x41363780c22d8d64U,
  0x40e64052422263a0U, 0x3ec5b7b341e72f33U, 0x407374abc0816139U, 0x405717d4c2026026U,
  0x407daf8940c8ef34U, 0xc0cc8109413c805eU, 0x4101ff9bc11babe3U, 0x3fe484d7408f96f9U,
  0x4037567ac0b02d78U, 0xc13b5865421aa9c2U, 0xc01a1b0d419cd5c2U, 0xc02ceb25c0094edcU,
  0xc087e1bfc0b6f309U, 0xc11b71f8c17d8702U, 0x3fd4e4b0c0867f71U, 0x409dd546c081a605U,
  0x40ca5143c095c734U, 0xc11ce5c8c1265bb9U, 0x3fd5aa6b4031469bU, 0x41d4c1c6c1489f94U,
  0x3fb569e5c10d6d89U, 0xbfbedb3e40aca973U, 0x3fa5da2340b8b51fU, 0x408853e6c147dd91U,
  0xc127b76a416c04c8U, 0x413bdf553fb15389U, 0x3f201396c098df3eU, 0xc172698141251bf5U,
  0x41626892c16b9053U, 0x3f048f943fe3dcc1U, 0xbfcf465fc0c62015U, 0x4038f65b410b2cf0U,
  0x407fc5463f95af75U, 0x411b53823d9ccebeU, 0x3eac64eb406f27c6U, 0xc062ff21bfc7b783U,
  0x402390b240954868U, 0xc0871981403583d1U, 0x3f60365b404599a7U, 0xc1bf127b415fbf3cU,
  0x3f279d1ec158e1c0U, 0xc14a2d45c08014e3U, 0xc0014e383efa54b5U, 0x40e7496f412d74a0U,
  0xbfe4c2f8bc8fc17fU, 0xc125c89fc1a14d59U, 0xbfd61820bff1f213U, 0x407233ea4111d8f1U,
  0x40c56d6441367bf0U, 0xc190a0d6c25b2a54U, 0x40f5f2e64213d2e5U, 0xc0870c6041458a3aU,
  0x41a2ad9a4089ec5fU, 0x41a864a040fbd079U, 0xc11b18f5c07a924bU, 0x414de8e2c05c1a50U,
  0xc06fd79ec080a248U, 0xc1a8b6cbc0196878U, 0x40ad38f3409fc9d6U, 0xc2134dcb4053b7caU,
  0xbfaba41c411aa7f3U, 0xc09298e540f63ebbU, 0xc0f5ae9fc0ef68beU, 0xc1987d3e4199cf26U,
  0x40f7af7941b309d7U, 0x3fcd730041a84f6fU, 0x4166bc72c144bbe9U, 0xc0587542c122ebe9U,
  0x40bddc5e3fb49ef1U, 0x42114155c211c5d5U, 0xc02d1d7fc1dcf32bU, 0xc1c06877c1916c42U,
  0xc08677bfc09b2871U, 0x41726647c0c991e7U, 0x41970b92414a9700U, 0xc1babaf14065167eU,
  0xc04616f141c7a098U, 0x407c3f73c125051cU, 0x3e9421e240eb3068U, 0x421f94b8c1505120U,
  0x41133428410080d6U, 0x417bd166412d41c6U, 0x420b42303f196b9cU, 0xc02b0311c1a61997U,
  0xc10b6d6440f56ef4U, 0xc162763c406f27d9U, 0xbf33c0a340f74cf3U, 0x4177e645c15befbdU,
  0x408e3af3418a54b6U, 0xc1876ce042090d93U, 0x3fc95ba0bef3c59dU, 0x40d5fb6c40a695beU,
  0x4198e423400b7b74U, 0x40867affc0ee698bU, 0xc175cb4b41ddff95U, 0xc11401c0c0974753U,
  0x418d2674c0d0e377U, 0x41afa2a941491235U, 0xc130d4a8c1462279U, 0xc1e61278c22974ddU,
  0x414d281f409a1c03U, 0x41dbb9acbf2ee4bfU, 0x421c6215bf8220bbU, 0xc17eba91c0d2e3e9U,
  0xc11252efc0e4400fU, 0x415fa7dfc19725cbU, 0x40edb4d7c11a6a6cU, 0x409dc0f6c0da7ac5U,
  0xbe347424bf40d7dfU, 0xc13655ee421dcc87U, 0x3f8e6f44411f9dacU, 0xc134246240951957U,
  0xc161d7a3c0fe1c22U, 0xc0c7afa73f52527eU, 0xc06c579dc153b53aU, 0xc1ab929640b3be5eU,
  0xc12ca8e53f85d3a7U, 0xbfe9a964c08f49bbU, 0xc033640940cc12bcU, 0xc1da7cdfc20eb737U,
  0x409f0124c0a77a4aU, 0x40b9b5a6c095673cU, 0x4085a1d1c0a005deU, 0x41acbafa409d6b90U,
  0x400a5e6f417e68b5U, 0xbee5017fc074fc52U, 0x3e7768ad40c484e1U, 0x4011551e3f6b126cU,
  0x40cef46cc03415f7U, 0x40d54081c2141716U, 0xc191d890c1aef019U, 0xc0dbefc1401e7f14U,
  0xc209177d408108d7U, 0xc081e933c1a85403U, 0xc0ddce40411db0b3U, 0xc0f08556c0049ae5U,
  0x40f238fcc0ef6907U, 0xc102df95c00c19f3U, 0x40552224c0998444U, 0xc1f5c830c15f78fbU,
  0xc00de3f041f31a88U, 0xc19b7ab8412e575fU, 0x418670efbe2127bbU, 0x41831d7b41862ddcU,
  0xc1248100c11870e9U, 0xc0d135b2415c09a8U, 0x41209e82bfeadbf3U, 0xc07cb431400e1399U,
  0xc18ae00f4176ce1cU, 0xc190633ac22db723U, 0x40b88eee411fb128U, 0x40ac733cc15d7f35U,
  0x41c4102840e03621U, 0x414bb2ce41b4a983U, 0xc0b6e5a6c09feb34U, 0x3f9a5618c120fcfaU,
  0xc088e71dc108bc98U, 0xc1139387411bff66U, 0x41a10862419a992bU, 0x4230a9a8c1938063U,
  0xc122196bc1875fe5U, 0x40fabee6c2029420U, 0x412fd49240efe4daU, 0xc0d52bb3410b1d7fU,
  0x407e459ebeb9355eU, 0x40ddc77840a3f112U, 0x40c66447c0987d8cU, 0xc12cdd9540e13d21U,
  0x40f3ee8cc0a14a45U, 0xbf6ab7e9c08a8a22U, 0xc157dcd2c0ae1bcdU, 0x417127b5406504cbU,
  0x40fa2b734187e5daU, 0x413974e640f2cf94U, 0x41911fa4417a4a3bU, 0xc0d1ce5dc07ba657U,
  0xc0941be7400dc835U, 0xc11ac1de40805021U, 0x3f6e18e14181915eU, 0x425976953ff71827U,
  0xbf29efb8bfcea4c7U, 0x419b139e42031d9bU, 0xc0fc777141038516U, 0xc0a2ffad4113a36cU,
  0xc0cbe541bf12123cU, 0xc0985d77c15eb52aU, 0x3feb64f93f0a2b3dU, 0xbefa0358c15bf908U,
  0x415afb3abf9d854dU, 0xc20001b341b27992U, 0xc169d0bc3edb683bU, 0x41c6c1d440972034U,
  0xc046a24e42093884U, 0x3eeccdfa4108cce1U, 0x4143c04141075ad6U, 0x411af178c083d93fU,
  0xc0fc416941280502U, 0x4006e272c1263e91U, 0xc13b7f37bfd82b0eU, 0xc209312a4218eebdU,
  0x408d6cbc3fcb61b4U, 0xc11473153f972671U, 0x3fa25322c0044451U, 0x3f932150411e499aU,
  0x3edf6bc141c803f3U, 0xc124225e41ddf3f6U, 0x4003ef743f6bdd05U, 0xc080dae9c0d16217U,
  0x3f8cb3bc404c540dU, 0x417f85304174bc5fU, 0x3e41ffee416931cbU, 0xc11c78d94211ad6fU,
  0x416b425841bd4778U, 0xc111c0edc17e5303U, 0x4165eef341fcf330U, 0x41a139c0c1d21209U,
  0x40aae183c0f917f6U, 0xc07fb680406ff667U, 0xc0f0609ac14bf254U, 0xc215ebfb416dc65cU,
  0xc131b310c1282b1cU, 0x418e2cd841382a02U, 0x4132c4ed4064fc61U, 0xc09a4b48bf0292b8U,
  0x412dafb5c1186250U, 0x40dc8a7b40ebc801U, 0xc0a00a7c419b14d9U, 0x40ef499c408b44caU,
  0x3f932520c06cc64eU, 0xc0a4b37b42413e20U, 0x41271d5bc0559d4bU, 0xbf40c5b94093364eU,
  0x412ebc424048e793U, 0x405f38194177932dU, 0xbfc1813b4128c47fU, 0xc0b81c9e416e763dU,
  0xc08eedfd40b3f5bbU, 0xc0c6574940abd968U, 0x40f46f99c06fbf00U, 0xc1ca72e541f8e3c4U,
  0x3f88b0edc13ae019U, 0x408305bf3fa28598U, 0xc024064a416dc509U, 0x40e4dd54403c4177U,
  0xc10316c64194d0c5U, 0xc01451f241950a4fU, 0xbf175aeec1153477U, 0x410be0fd410863d4U,
  0xc002635e4188862dU, 0xc1db11a4c23df010U, 0x408e74f54235a88cU, 0xc1b18eb14187a9c7U,
  0x41301776409b255bU, 0x41acf9c240b72286U, 0x40671abfc09b3926U, 0x418ed77d40bec50fU,
  0xbe10c11c3fda9c97U, 0xc12da859c11a3571U, 0xc010209ac188352dU, 0x4133bda1423471ecU,
  0x3e872e2c4104f7dfU, 0xc038a6d7c1da4fd6U, 0xc096a482c19d00eaU, 0xc1bc9bd041245629U,
  0x40aea6aac09977b1U, 0x41dab5a4c0b5fe40U, 0x41765dbdc15fac86U, 0xc0a850fa3fe1c77eU,
  0xc113b89a40d5640aU, 0xc169dd9141c904aaU, 0xc08aeb5341622c20U, 0xc15b4f43c1624178U,
  0x414a0120c17480fcU, 0x3d893e5fc1b1ffe1U, 0xc206925c42159265U, 0xc03867de419fc7adU,
  0x4160315bc073dad3U, 0x41e0c18341e3ef5aU, 0x3f9a0757417353efU, 0x41f8a8d040977904U,
  0xc0ddd30cc16a1510U, 0x402c39ca41258bfaU, 0xc0340e2941007d95U, 0xc117f393409f84feU,
  0xc0b5627ac01589deU, 0xc0d4d6c3c0c0e9a8U, 0xbe167459c06edbc3U, 0x409d23c64102c177U,
  0xc027ef8fc0eed677U, 0xc15b96cec2113359U, 0xc1545592c1719807U, 0xc1a315f0c00d03ddU,
  0xc1945e52c091c811U, 0xc09ae752c036fa06U, 0x40c1257d4151bddcU, 0x3f11443cc1b1144fU,
  0x4142de99409495f5U, 0x407898aac0fac94dU, 0x40e3143340bc6d47U, 0x41b654da41bba78dU,
  0xbf792e193f578bb5U, 0xc0c7be69409b8485U, 0x404b1c92410c0048U, 0x40a2ba7a3f346029U,
  0xc070c4db4109af50U, 0xc0e81f4ac01c7e5cU, 0x4105156dc0ff2023U, 0xc000203e402b2be2U,
  0x4035c8b1c109a591U, 0xc2127f5fc2530b47U, 0x3f276adec1813f5eU, 0xbe975691c1749fb7U,
  0x416f8ba74107e183U, 0xc164016bc19d2447U, 0x413d297fbf20d5e7U, 0x40885130c1003f26U,
  0x3fb5a831c1865c6eU, 0x40c87e68c126d4b7U, 0x3f042798c0b1d5d9U, 0xc2104e2b41ca6d7dU,
  0x41088174c10b4fefU, 0xc1550a0c402068c3U, 0x41662ad4416f630dU, 0x4169f422419ef1eeU,
  0x417da5a341055093U, 0xbf96b723c05e7accU, 0x40173a8240e26bc2U, 0x40ccc2c5c0f3306dU,
  0xc05c9785408aa8ccU, 0xc19482e2c13f4ca1U, 0xc153e989c215e727U, 0x4106925241327c19U,
  0xc11af0fcc0af7539U, 0x409c0759c213b0beU, 0xc1a4ecaac18b18f7U, 0xc06ad2ce41b5472dU,
  0xc0fc8e22c10d7c87U, 0x40a02a6941353956U, 0xc12d6392bf358d99U, 0xc1eb19fac1e2d6dcU,
  0x40934bd13e3f11e6U, 0x40e64d27406e68f4U, 0x4090f87bc00f010aU, 0x410f1b25bfcdf046U,
  0xc113a9a0c016b5dfU, 0x41054244c077b01dU, 0xc0e10a2f40debaa9U, 0xc06595aa40d05663U,
  0x4016a55e40da5692U, 0x4233ebe6c1e8cba9U, 0x3ed2a3ffbe85ebb6U, 0xc191e0d8c200de80U,
  0xc0016f14c0fae662U, 0x406187ccc11fc8b1U, 0xc1873ab8c12f4d29U, 0x4046934641a42304U,
  0x3e4a774c4116e2b4U, 0x40d99a4a4078e974U, 0xbfd13fa3c0b70a1bU, 0x4198afee420f49e4U,
  0x4122c202c0c40c2fU, 0x42144045c19cc2fbU, 0x4056650dc1a0a513U, 0x40db083141a520b0U,
  0x41adb493c1b92575U, 0xc146e6f441557f4bU, 0xc1328b3d401156c5U, 0x4100002ac1031ab2U,
  0xc16af787bdcc174bU, 0x426144a2409a9a6dU, 0xc0958a4ec097884dU, 0xc08b5f25c20aab11U,
  0xc1376146c18311feU, 0x417929c23f8c15bdU, 0x418d4107c0bc6d9bU, 0x418f34784173b067U,
  0xc041254a3f3159a5U, 0xc15c4592c0ce8e07U, 0x40aa7d12411daa6dU, 0xc211a7ecc1a9973eU,
  0x3d1f365b413bf955U, 0xc0e6f200c0b6f381U, 0xc0223acdc08f5e9cU, 0x41bfabe2406ca58eU,
  0xc112fcd2418c83acU, 0x4116d175c159c269U, 0x3ffea01140ad1385U, 0x4124343ac0990f79U,
  0xbffdc7c0c1474c2dU, 0xbe84f780c22a5b4aU, 0x40879b16c193def4U, 0x414b0417c0448f0fU,
  0x4067cc1fc09812e8U, 0xc0a274a341a15b49U, 0x406501d2407a65aeU, 0x400f38a1c0bffe99U,
  0xc01ed0874026f8e3U, 0x40d9e783c0c206d0U, 0x40afeb59c00b2814U, 0x419e9e22c0bf52f8U,
  0xc0ec132cbfa6a3bdU, 0x40dc49fd41dd3337U, 0xc209bea64067a800U, 0x41e3a8a24174d4dcU,
  0x41b11ca9c10f1290U, 0x41c29dffc0a19250U, 0x3e851e8ec01f1481U, 0x4137a20d4159f331U,
  0xc16f430841c06a31U, 0x422f85f2410f0162U, 0x3e1a4c8640ee3c05U, 0x413a5ea3417160d9U,
  0xc11684c9be6fbfffU, 0x411122a740e18991U, 0x412830b73e45b0b1U, 0x41224c2e41b1bf1bU,
  0xc08d4ccfc10f3d94U, 0x411b6def41581ba6U, 0xbfe803f1c0b6aa0aU, 0xc1e1a6fd3d66a079U,
  0xc10834ebc1a41013U, 0xc1f5274741658734U, 0xc194c15141bff6b5U, 0xc1a009f6418125e7U,
  0x3fb04997418e734eU, 0x3fa67d53411f57dbU, 0x410292b84077440cU, 0xc0e93a1640f7336fU,
  0x404b16f64017ce2cU, 0x421f2e06c10e0c1bU, 0xc11b6bf5c0817857U, 0xc07b403ac1e31e5bU,
  0x3f85bc46c1ad86f8U, 0x4085cf61c05ac89dU, 0x3ff3b1a6c1982b1cU, 0xc03e07ebc0d00797U,
  0x414dc870bf6a3f7bU, 0x40d9e19fc1c5f4b3U, 0xc0ae964dc06a5c9cU, 0xc0289a89c23991c3U,
  0x40adbc0e42269f4bU, 0xc18a112a41ad8f29U, 0x415057d1411b088dU, 0xc1247cf2c1da8baaU,
  0x40e8891dc1564a77U, 0xc1234bcec056bb06U, 0x3ef8bec6c025a2b9U, 0x4018e1ad40f338a0U,
  0x3f94e7c140b04fd8U, 0xc217acb8416781dcU, 0xc0244352c1808d24U, 0x40c569f841163913U,
  0xc10dfdedc185aabcU, 0xc0ade231c1616db8U, 0xc0a940a841b35260U, 0x418f413241a61337U,
  0x4106132ec0a4956aU, 0x41b1cd9240eb5e98U, 0xbfd19095bf25208bU, 0xc16b3053c20cb301U,
  0xbf3a0e95c052c142U, 0x410385b04194d2bbU, 0xc1d03c6bc09a66abU, 0x4105af1f40af461bU,
  0xbf91cb21418a7ad3U, 0xbe843144c0a73a58U, 0xc146018f4170659fU, 0xbfd285964116e7b0U,
  0xc10e025ec13cb9acU, 0xc22971c93faf8136U, 0xbfcad1a040a639e7U, 0xc152e24ac0cd3b97U,
  0xc09148d5401c3768U, 0x4174a39941b8bfc5U, 0xc1633464c20434e5U, 0xc03e2e4f3ff9cb4fU,
  0xc00350da3f6b69ffU, 0x4095686240607829U, 0x40ac384ec0a55986U, 0xbd8e3749c100b70dU,
  0x4101caacc0e15a13U, 0xc05eff67bfe494f5U, 0x41182038c0d011acU, 0x4019038c413260edU,
  0xc096579ec0b1dcc7U, 0xc11342c4c120f580U, 0xc109d62d403d86f0U, 0x3eb4ffc6bfbf68aeU,
  0x40a2ca70c0cd2211U, 0xc22746a342733924U, 0xc109eb83c11e04b0U, 0x40c91937405718abU,
  0x4095a43941a3cf78U, 0x41a826d0c1db54b5U, 0x41b40438c09cf33bU, 0xc169665e41187937U,
  0x3f8ea96ec1623d24U, 0x40f5650440b4ac33U, 0x41278205c16131bdU, 0x41b8683a420769ebU,
  0x4052f01940106861U, 0xc11c2d0f410c8d8bU, 0x4135f476417d112dU, 0xc0d5243ac0873417U,
  0xc1bdc96841268204U, 0x4013c665c1404b2bU, 0xc0e5d56241d08b7fU, 0xc10f7f23c04f17b5U,
  0x3e7f164bc0138f15U, 0xc22f7572c121e1f1U, 0x4156673cc15d544bU, 0xc16eba6a3fd3233dU,
  0xc0af01bd41679e63U, 0xc167a314c0e9e02fU, 0x4206d364c13848caU, 0x410ddc17bea0aa74U,
  0x404a507d4196e299U, 0x41a4e3b23f114944U, 0x41171fbabda5e7f2U, 0xc1b461d1c1c673b4U,
  0x4121f831c03cc92bU, 0x41dee62cc13c43cbU, 0x3cfd5951c18b96c6U, 0x41052e203fbfabcfU,
  0xc004bab440be5658U, 0xbf917b46c1599f9eU, 0xc1819b51411efdbcU, 0xc14e64a040cf5a4eU,
  0x40ec1312406c9c46U, 0x426122bf3fd62e85U, 0xc0b5e1c23ffb50f6U, 0x3efd75b042343a51U,
  0xc18ad0bc413f4ae1U, 0x3fa5935741f4f211U, 0xc04c89e7c1175dbdU, 0xbf09e81cc12b5a52U,
  0x400011fdc0cce4faU, 0xc0063d92c17f8ab1U, 0x411a7d29c0fba2eaU, 0x41ff0b4cc09e47ceU,
  0xc15b27bfc0c9b9caU, 0x40c333d041dc7ef7U, 0xc209a738c08d7043U, 0x42020d9d413e1917U,
  0x41aa51e7c14c3f59U, 0x41d9aca1c01261f7U, 0xbfe04fcdc03d325aU, 0x40cf1cee41723489U,
  0xc1223c5f418e6ee8U, 0xc16c9127c167a446U, 0xbeb631264201ad7bU, 0xc148f1da41cb09adU,
  0x409d182e415300d3U, 0x403b3af5c06bfdc7U, 0xbf9ec8b1419ac0a7U, 0x3fd89cf840a7d30cU,
  0xc0a8f271c08c2258U, 0xc13ab5bd41817be7U, 0xc15c44cbc19b6d8bU, 0x422d1b08c0be35f0U,
  0xbfd78a2ac0ca4862U, 0x401133dac1455dc7U, 0x4104c826406c8a6dU, 0x419bc76e3ffaf524U,
  0xc193949b3f1374fcU, 0x414ca46e40ff4f89U, 0x404392ccc089d29aU, 0xbf30107e41615818U,
  0xbfd6075b3ff3a452U, 0x4244e44941b73126U, 0x40ee7c6940854514U, 0x42130be13fa12233U,
  0x40c700ecc0df0344U, 0x403a9da0c151c725U, 0xc023299bc16fae31U, 0xc0d9a21c4142bfdeU,
  0xc052b8ca401f20edU, 0x404bbe11410807a5U, 0xc0172adf4135509cU, 0xbe2ee7f9c1b7f529U,
  0xc1252348c210927dU, 0xc08586e0413f6c96U, 0xc100112dbfb178fdU, 0x41b33491c1d85198U,
  0xbf649c8bc13930f6U, 0xc1d4a82241887940U, 0xc09901ac3e92bd25U, 0xc04d0473c1c2f2eaU,
  0x4056f3eec0dfa4f9U, 0xc21f46a041ea1f8eU, 0x410e7cd640e9e9e0U, 0xc0a1ac88c1011123U,
  0xc05ed99c402d4647U, 0x41a3331e41ba286fU, 0x3fc5a358c18776cdU, 0xc0c334fec1b2ca55U,
  0xc0f63d51bfc1336bU, 0xc041266b40b6f72bU, 0x40b40b9cc0700e90U, 0xc208cab0410807cfU,
  0x409752b5c0d1b9a8U, 0xc11c354bc084cb67U, 0xc0aa3206402eaf4eU, 0x416cf4d8c09fb5fdU,
  0x40d0c361c14b2c12U, 0xc18c7f22c1dc825dU, 0x3fb30c88c1899e3fU, 0xc11d5d8bc109a9f7U,
  0x411711a8c151c468U, 0xc0e49acc422432a9U, 0xc0bafc6141a5dba3U, 0x41a81f79407ff258U,
  0x4135d9ff41433bebU, 0x419e665fc18cf4eaU, 0x402388d740b002c1U, 0xbf54cfb540aaa7f5U,
  0x40e53bec41648e1eU, 0x3f18d2c4c19dc513U, 0x41a76295c1563970U, 0xc0d7f9efc26be3f0U,
  0x411c10fd41c2d645U, 0xc134584e41815af1U, 0x41d06faf41073711U, 0xc04f5fa53ff5d6e1U,
  0x406f8fa8404a1ddbU, 0xc13bb71f3f4916b0U, 0x3faa3190c1a89607U, 0x40f480de4090a438U,
  0xbfae7a153f88a468U, 0xc132b2eb4236cc30U, 0x3f253841c208dc72U, 0x4137e1d0418aa809U,
  0x419e6cf441928185U, 0xbfe3c933c06b7ca9U, 0xc184ac72413e1851U, 0x4170bc8540aa3a3fU,
  0xc0e0d4ca40c5c349U, 0xc16d49de40dd7677U, 0xbf00cf47c19de479U, 0x41feb1dbc17fa6a8U,
  0x41ac528dbf18ded5U, 0x420afcdbc12113a5U, 0x40b0dfe7bf89327fU, 0x419160f2c18c4896U,
  0xc0a0deb3be68bda2U, 0xbfbe69bdc1008e69U, 0x408d13e7418a316fU, 0x40d20542c1a0d3fbU,
  0x416dd92f413b0c13U, 0xc247b9a7c11e0e81U, 0xc0d9cb69c1a0f848U, 0x4180e5a7c0ce79d7U,
  0x3fd9ef6a417d061aU, 0xc08381c8c204f954U, 0x417b63bbbf74eaf6U, 0xc12de1cf4014b3afU,
  0xc1031787c06d3041U, 0x3fcd944ac0df0b34U, 0x4053a474c102abf1U, 0xc02fd4464283e408U,
  0xc0a685b841f6fccaU, 0xc1c7c2e9c1235586U, 0x4004a14dc14c0e10U, 0xc11b84a9be4f0e4fU,
  0xc0f734c5418f39e2U, 0xc0d5c0a6c04009e5U, 0x4041624cc0200fb2U, 0xc13f01d1c0f6cf98U,
  0xc074e39e40ac97b0U, 0x401c459541a3a116U, 0x3f893a4841cb07efU, 0xc1ccb7b5c0bbd9bfU,
  0xc1274814c1ee50a3U, 0x413446c2c1f3f4c2U, 0xc15cb569bf9e2d79U, 0x41aa9c23be0f6783U,
  0x40ec2ed040dc1631U, 0xc05ff7bdbf961dd1U, 0x414074e3c013bc49U, 0x4192e275c2036136U,
  0xc17c2a48c08965c0U, 0xc05d8e8e3fa5c8ddU, 0xc0a8791b402c67f1U, 0x4156dcfec11dc83dU,
  0xc18c9c843f7a7a56U, 0x40e9c395c0d97597U, 0x40d01c99c00182f6U, 0x3fafc2f9c066dddaU,
  0xbfffb2ecc0c38486U, 0xc1c0adc141a41ae9U, 0xc018b0f43f7c3521U, 0x40a26629c0336455U,
  0xc0c3fba2c08f9721U, 0xc0f493f7c10dfa33U, 0x40a0ee62beae7d98U, 0x41485f494023661aU,
  0x408241b33edad3d0U, 0xc109dc49c0b09ea1U, 0x40ffbd694008dfb2U, 0x419671df41349e95U,
  0xc15f3b153fa7df00U, 0xbf31364441d2f33cU, 0xc1f89dad40a0e4f7U, 0x421030c1c051c953U,
  0x41b39222c1a05d48U, 0x41c62f714085439cU, 0xbd40c205c1ae133fU, 0x416425e141ba5359U,
  0x3f1a1d3540b653ccU, 0x41ab3f13bf5aebc3U, 0x401cbae13f4a2715U, 0xc22a41d83f8cf6e8U,
  0x41c1d97a41a6c33cU, 0xc1bad9d54135c5f5U, 0xc0ce2269c1a14fa0U, 0xc0783fecc064e713U,
  0x41596ccd421d452bU, 0x40d12a4dc059b83dU, 0xc1c4a43341923fd0U, 0x40d478ae42129bd5U,
  0xc106a4373fd6ea74U, 0xc161028c411db5c8U, 0x41e7dc8741b3177dU, 0x41088c4abf80acd8U,
  0xc1a8daba41863022U, 0x40c0fd09c0e3c91cU, 0x411edf3741482526U, 0xc0a987ff4067b297U,
  0x40f7b87541059126U, 0x41aab3294251fc2cU, 0xc06f924fc0ebb322U, 0x4125c1ec419f89c2U,
  0x3f3007ee41472786U, 0x40a16db840937644U, 0xc08842a4c175f765U, 0xc06daf9bc0a6837cU,
  0xc088246941072d25U, 0xc0c8ae65407401efU, 0x410b65b7bf91c0a8U, 0x419fff98c1d9b247U,
  0xc0da62dfc0ab0596U, 0x3f2ee68a41357bc4U, 0xc1ee7ccebfa780d3U, 0x4137baf6c1594eb9U,
  0xc186f91a4132ab47U, 0x416d4c40c18a9d04U, 0xbf89b504413f9318U, 0xc10e1018bfdc56afU,
  0x401f7e5040a70196U, 0x4198d7d641ef2e4aU, 0x4191e2184114d32aU, 0x415ed1f6c214dce7U,
  0x3ffdeb60c14786f4U, 0xc1b9c56040c1f36aU, 0x41103c2dc10067d2U, 0x40012a80412ee549U,
  0xbf25c7004011ef98U, 0xc20a8e29bf066e7aU, 0xc0e8d46441d60740U, 0xc1ab2be34207105fU,
  0x3ea39b30408817e2U, 0xc1405598c10922dbU, 0xc14f6629c167b620U, 0xc133f52a40815bafU,
  0xc1b14422c0d30bddU, 0xc09ce3cdc0b8d60bU, 0xc04056ef40cc29e5U, 0x4122865bc04b4e5cU,
  0xbf8e695f4150c0e4U, 0x41ff9c16c19ef0f9U, 0x414d359a41a0f5adU, 0xc079bd904141b66dU,
  0x419e05ba41321692U, 0x408a34943d8a6a3fU, 0x4119966cc1443f9bU, 0xc0c72746c0eba7d6U,
  0xc17f350a42146d48U, 0x413b13a0411c767cU, 0xc012991141a0d7f9U, 0xc2022ad9c26b427eU,
  0x3f97ebb541e4ef06U, 0xc1798431415ac996U, 0x4195d6a34138ec16U, 0x412d236ebf9d2ddeU,
  0x416b4f05c11124e4U, 0x41a17eda40b6ee08U, 0x4114790fc113626aU, 0xc1625681c10512f5U,
  0xbe5f0f5ec115e16fU, 0x4125037a41efc652U, 0x411f9b2040de75edU, 0xc12b1af2c03b5da7U,
  0x40c7012fc0915faaU, 0x411065f9bf50988dU, 0x416d2fc6402474bcU, 0xc04bc008c0c430a5U,
  0xc02226c6bea7478bU, 0x404d0f87c0e79747U, 0xc0a31c5bc1530df4U, 0x410304dcc24443dcU,
  0x40ca94454199cd44U, 0x4191b96441b50307U, 0x411a024ac1081bf3U, 0x40a1eaa740b619e9U,
  0x4188027e41a6416aU, 0xc14c7d2c41430bd7U, 0xc01e8ac8bfdd2e00U, 0xc074e757bf22fb48U,
  0x40800838bfd44f60U, 0xc2629b9ebf3284e6U, 0xc0fbcbe6c2075100U, 0x40201d763fec4243U,
  0xc180e10640a368c4U, 0xc1b62edf3feeb7e4U, 0x40f7c624417baccbU, 0x40e9af7441a7903eU,
  0x418f173ac0f50fc1U, 0x415dfd0cbfd3d521U, 0xbf558d6840d6e62eU, 0x418b2b34c2302bf8U,
  0xc1010d224133d580U, 0x3fbbc52341d2537bU, 0xc142d68bbffb83fbU, 0x4086bcddc1b51fd9U,
  0x40c5720141b4bbf2U, 0x40e1e0f34035dd99U, 0x3ebfb84c40bc91d2U, 0x3e3757de400d0afaU,
  0xc14785e6c09ad259U, 0xc1d8a508c09e8ba8U, 0xc136afd4c16251a8U, 0xc130da5c4105cf5cU,
  0xc210640ec1b7beb4U, 0x40c952e840d3b413U, 0x40ac7a3541817ae6U, 0x3f01d6c0bff11828U,
  0x41a70250bfece7a0U, 0x420c04e2c11de697U, 0x40e1e13741ba79c7U, 0xc20cbe1ec100c6a1U,
  0x410d42c1410a2b04U, 0x4150fdf5c12236c8U, 0xbf9fd862c1a17a5fU, 0x41042dfdc11dbccbU,
  0x3eaef22c411a81bcU, 0xc103a0eac0fe13ceU, 0xc147b260411d4f77U, 0xc1858d7a3d2dabb5U,
  0x40a011fe4034d7e8U, 0xc1b61a24c1da06b5U, 0x3fc67b1241249ec8U, 0xc12280813e99e2fbU,
  0xc0d60b0041b17d84U, 0xc1b1aa1bc1311903U, 0xc030b1efc1d55839U, 0xbf21684f41262e16U,
  0xc0a4c5a0c021553dU, 0xc135385a409332e0U, 0x40df65f5c008c034U, 0x419f3cb8425cf392U,
  0x40832f3cc0a2d3a4U, 0x410dd8d6412fbfdcU, 0x41a1937f418ebd69U, 0x4015cefec162cf59U,
  0xc1d60c81417b8b65U, 0xbfa50113c1872356U, 0xbf0712244197cfb8U, 0x4103b8443fda1110U,
  0x415d562440b66568U, 0x4204db6c420cd06dU, 0xc18f6cbf408059ebU, 0xbfd258234206a321U,
  0xc0fda179419422cfU, 0x401ff6e540476483U, 0x408763f0c178a8a0U, 0x40c5cf2cc097b1fbU,
  0x4103fba9c01d6573U, 0xbfdaf3abc14aef39U, 0x40a82cb0c0b603eeU, 0x422495eac1622a31U,
  0xc0294a9bc1606a2fU, 0xc0df882cc2094428U, 0x41510b4cc03ca4f6U, 0x411b6cebc0f2e410U,
  0x3f99b3934128a6d8U, 0x40ce8ed34100c503U, 0xbf980821c09e98ffU, 0xc120712b3ebb7175U,
  0x414bbb3dc0e76a6fU, 0xc13b6aa3c21746b4U, 0x4007286dbf3f33c5U, 0x40bb222ebf49494eU,
  0x40d3962abe0457a3U, 0x40928bd13e86736eU, 0xc0dbadad4052783eU, 0x40c72bcb407edf06U,
  0xbfb0ee26410c4399U, 0x412da07840b646e5U, 0xc09fcdbf40793d72U, 0x4259c105411ff39cU,
  0xc11557ef3eacde37U, 0x41928bbe41d7e969U, 0xc158c5fabf5c791aU, 0xbf35f5a14136beaaU,
  0xc0887002bee6608bU, 0xc130d375c0a34e48U, 0x3eb175d6c11b1180U, 0xc13dd0f3c1af25a3U,
  0x3fca1efac0a52e1eU, 0x42392e14bfb1b74bU, 0x405b6734c15c66c7U, 0xc12d0e77c1c8f080U,
  0xc03db6dfc1b1e24eU, 0xbf91c09ac18607e3U, 0x4102093f41651cc3U, 0x41252f2cc132c7d8U,
  0xc178d53bc0d41bc9U, 0xc16d19c24102c8bcU, 0x40b16f20c0880ab6U, 0xc1803f7dc1da8eafU,
  0x41280011411df374U, 0x407464ab4110667aU, 0x41b03801414235b0U, 0x40c12b5040951370U,
  0x3f8587ddc118a077U, 0x3f9c126040c3bbc7U, 0xc1151a1cbf627b77U, 0xc08edc8cbf457696U,
  0x400a15d2c0b15d27U, 0x420b0c32c1e385edU, 0x4074fd5841831530U, 0x414f2d9641a25a48U,
  0x3f9a6d84c0a6737bU, 0xc172e01c40a1633eU, 0x418b8f4541574e96U, 0xc1aada5b4113caf8U,
  0xc0492bbec0db987dU, 0x40c2056cc15f99f5U, 0x3fe6fe394106d223U, 0x41f98a91c1713329U,
  0xc16a1fc0c0892ea0U, 0x414f0f69c0959ea0U, 0xc0ad4b64c151582fU, 0x411111fbc1808353U,
  0xc0fe0182c097e8f5U, 0x4204669bc0f92f50U, 0xc0c3a88b417911dbU, 0xc06b658740da8f5eU,
  0xbff7ab3b41124613U, 0xc25fc3c9c1c81930U, 0x4134ff2b41aebc4cU, 0xc18401bf41902d51U,
  0xc1b6abc5c0ed83d5U, 0x410e1c4c41ad29ceU, 0xc1e0f962c1bae1b5U, 0xc15fe13dc142a709U,
  0xc104bfefc12f2956U, 0xc1340a24408613ddU, 0x3eba034cc01d08c1U, 0xc232dffac13b020dU,
  0xc1224d5ac1ee849fU, 0x4142965b413f3b5bU, 0xc0848add4216321cU, 0xc1228e94c20e6f7aU,
  0xc0b615fec1c243c2U, 0x3f90f91342126d1aU, 0xc14f25a4bff0065bU, 0xbfa9ff3fc0796012U,
  0x40db697e401d8fe5U, 0x41fd98bc3f8220c5U, 0xc019815940ef3372U, 0xc0ea426141661fe9U,
  0x4146f3e340d03a08U, 0x3ed3af8541b0d699U, 0x419938f4418d56deU, 0xc187bea6c1468069U,
  0xc076772dc113f528U, 0x41e08656c08005ddU, 0x417c7b80c1515f15U, 0x41c2d73ec1bf84a4U,
  0x41e00706413ba866U, 0x41bd4ee841b2120fU, 0xc14a2b67c0ff51d9U, 0xc1f4af24bf8283eeU,
  0x4176d46cc12e6017U, 0x401c9b53beceee65U, 0x40802d68c113bcf5U, 0xc0906dbc409f0d78U,
  0x403302ce40a49ffeU, 0xc17cb50dc23439e6U, 0x415a21d54161ac93U, 0x40993125c1672d82U,
  0x41dd3e294102cf99U, 0x41bd1ee7410766c5U, 0x4082ca9ec0e9c1eaU, 0x4160d521c10a6455U,
  0xbf0f7cb0c01f0107U, 0xc0f35d1340113350U, 0x41a03568be8a5d17U, 0x4128473dc1f4b8e0U,
  0x40cc5a27420f839aU, 0xc1a1bbd04193f382U, 0x419f11b841108a8fU, 0xc185de02c202fdf0U,
  0x3f9bf9dcc10ce8d0U, 0xc0c9a63ac0ab8dfcU, 0x3f27729bc0c620deU, 0x406db6c140b3913fU,
  0x41530e84402fea71U, 0xbf149befc22c47adU, 0x40ca583a421f9685U, 0xc161dc2141abe049U,
  0x418ba8c74124968dU, 0xc10ef7fec1d3a449U, 0x406258d8c0fed07aU, 0xc0d61dba3f9def84U,
  0x3cb7f3a3c080a06cU, 0xbfbad3934152d4eaU, 0x3ee0defcbe6cbba6U, 0xc2073d85c1d8a134U,
  0x40aca10dc13cdaf7U, 0xc0180a2fc18832bbU, 0x418b0b72415e0427U, 0x40a368c9c1a4112fU,
  0x412f8848bf24c7eeU, 0xc0c2881bc104b90eU, 0x4101149bc14fdf92U, 0x4036f55240689d63U,
  0x3f30d9213ea89e57U, 0xbfadc5a1c170ddecU, 0xc00dd1f3409c927fU, 0xc1525f6a3c88890bU,
  0xc14f077b41a5744eU, 0xc165ac93420e4418U, 0x41513cb64183226fU, 0x4095da33be9bfa9aU,
  0x408faa4ec13dc6b1U, 0xc1008c7c40d73eedU, 0x40d13c67415c6409U, 0x41803076c21339b6U,
  0xc15b49d8c0ba3cb4U, 0xc01027df41802c2fU, 0xc1e0850640ea11e7U, 0x4127e79740f315cdU,
  0x41950583419b9926U, 0x40fa3006c1361a2fU, 0xc1ca0e3a4138777fU, 0xc0694f2040ad651bU,
  0xc09f1bc6c15a40dbU, 0x41ac105a4246750fU, 0xbf82f60ec0a27df0U, 0x41bcfd9c419b78c3U,
  0x4033c03f41b9b41fU, 0x413e46b83ffed94bU, 0xc19685073e2df089U, 0x4099eb6040f659e7U,
  0xc0f3347f4135885dU, 0xc0bba374bf95de15U, 0x400d52693fe5c57bU, 0x41a2d67641d9bb14U,
  0xc0be0068be4c22ceU, 0x4230de1740c99f92U, 0x415ef996415935aaU, 0xbf47f3f2c1755010U,
  0xc1be5b503fbef9afU, 0x41022106c14296d6U, 0x409da01d40a603aaU, 0x40b75b7bbf4c7e72U,
  0x401eafd3bfb55ae3U, 0x41ece8f8c20c0bbaU, 0xc11457dec1d53fb3U, 0xc1c68289c19db97eU,
  0x418277b9419d10deU, 0x41340c03c1909582U, 0x41823d1041707f53U, 0xc1bbc4aa4189ef41U,
  0xc150f01741041d92U, 0x404c3077412164d9U, 0xc0f7dddb401f0af1U, 0xc182cb9cc1feb224U,
  0x40b9ea03c087bd9dU, 0x41716252bfe9182eU, 0x408ae688c0be5dfdU, 0x4115c60c4011390cU,
  0xc10371e3bf842685U, 0x412fa76ec0e3c034U, 0xc1063ac541742d04U, 0xc033a15c414005e6U,
  0xbf0895e6410eecd1U, 0x420e55f3c22eb77dU, 0x40cf7e2941d31865U, 0x410974ac410a4f56U,
  0x41abb8933fa87490U, 0xc1ea54d7c1dc876bU, 0xc00040e5c00b2ae6U, 0xbfc81d054126816bU,
  0xc0c6eefec0bbc1a4U, 0xc022056d3feb8084U, 0xc0e5d03a40cf2ff1U, 0x425a6a6041038beaU,
  0x409bca3ac16736bbU, 0x41d104cc41f3298fU, 0x3db16cbec04a15ccU, 0xbf1854c93fd2cb7fU,
  0x401e1924c17f009fU, 0x3ff18ba540a14272U, 0xc0b88414c0730481U, 0xc14cc91cc12664d1U,
  0xc0dc139ac0466cddU, 0xc113881ec2513651U, 0x410b4e5741c85b90U, 0xbfea98c941634892U,
  0x40eb617dc13df276U, 0x41bf23bf41062ac3U, 0x3d92788b4093e000U, 0xbf20df704176971cU,
  0x3f948df640edfcb8U, 0x4171da813fbc1f92U, 0x3e4d781bbfb656dcU, 0xc1c1340fc21e7f02U,
  0xc12b38e0c1b8d1cdU, 0xc08b0b78c033f4efU, 0xc19f82bc41a4b10aU, 0xc0872902c1435629U,
  0xc1c0f219c16f888dU, 0x3fdcacc641a7f374U, 0xc0c0839ac0cf31daU, 0x3fd9a27f41309769U,
  0x413ad6f23f90eaccU, 0x4127a4154230eba0U, 0xc0e7b519c0e680cbU, 0x3f5eb5d8c174463cU,
  0x408df711c138a335U, 0xc1a1b9fb4160abceU, 0x40933fa5c090f635U, 0x401805a83eb1407aU,
  0xc11f7620416b503eU, 0xc10d9b24411dac58U, 0xc1a08b54c08c002bU, 0xc1be631142709e00U,
  0x41145737c175d74dU, 0x4158ed7640c2e102U, 0x41b8d0a0413fd206U, 0x40858fffbf2b0174U,
  0xc177c98f41e080b6U, 0x41503718bf44e5e9U, 0x411bb57641037d79U, 0xbf98d8d34025b3abU,
  0xc04cbe79411fb631U, 0xc14eda3bc1c6b56aU, 0xc063d2dbc205a5deU, 0xc1cb836fc1029caeU,
  0xc18d5be442079318U, 0xc11c3e33414d61fbU, 0x40c31a32410d9f17U, 0xc169c3a5420a39c0U,
  0xc0f6d51c4195a969U, 0xc11292d7407f65fcU, 0xbf0d046c41113d40U, 0x42379ca9402639b7U,
  0xc0a1a7cbc15f9e18U, 0xc186a2b7c2092cfdU, 0x41a86478c0615289U, 0x40fd2822c124b6beU,
  0x40b6790b41f2fb32U, 0xc0835c34c0067568U, 0x409610a8c041ef42U, 0x40a985b9bf9004d6U,
  0x3e8b9733c0f1f305U, 0x41b529e342105a12U, 0x4171525cbfb870dcU, 0x415d1a4cc1ef8f0bU,
  0x401ea25fc1f0d2e8U, 0xc0707a594025c303U, 0xbfcbc5a6c1461e10U, 0x3f2c2fcc3f181ac4U,
  0xc0d5a39dc0c12ea7U, 0x41235542c00b0fddU, 0xc12184bbc117f448U, 0xc0d8aac0c2734fa9U,
  0x4122ec95418cc0c2U, 0xc096a72d414f9479U, 0x41934c82bf3a2a7dU, 0xc105cc1ec0bfc5c2U,
  0x3f5fa2dfbf6a0adaU, 0xc1079f4a40a51f5cU, 0xc07a0c21c1754e91U, 0x415da93a3fcff900U,
  0xc0ca7d3e403fdc2cU, 0x41a216abc2838be9U, 0x403c7cffc185f7f9U, 0xc0e3ea71c17ae1dcU,
  0x41a3ca48412ceeaeU, 0x3f46667e418d4b14U, 0xc1925cbec176c44cU, 0x40fa414a4135abeaU,
  0x414878abc096e979U, 0x4097b8d74054c0faU, 0xc065e9f2409bec6bU, 0x419091dfc18a7df7U,
  0xc0da37eb41101744U, 0xc218815cbf4103b7U, 0xbe8a4070c18d3b07U, 0xc02a05f0c181c20dU,
  0x41171315c1630eedU, 0x41974f2f40b42c02U, 0x41ee8b26c083d091U, 0x416d283ac0310663U,
  0x4105b39b3fdd4ee9U, 0x41fb1fbec141e322U, 0x40477365bfcc7b07U, 0xc0f02ebcc0ade43bU,
  0xbfd0c8fc410b79a0U, 0x4107a2d2407a0cd9U, 0x40c6cf7340f56e7dU, 0xc038b3de4129ca76U,
  0xc05b36513f741751U, 0x4145dc984110ed7cU, 0x4034a30b3dab6f15U, 0x41b61bc8c1c3b5ffU,
  0x40c6a287c1980c0eU, 0xc151479fc0d5797dU, 0xc18b7122c18a4f53U, 0x40e7c8b03daf77ceU,
  0x415be36a40e40bdfU, 0x41c32d1ac08dbdc0U, 0xc113ad2e418936c2U, 0xc111282241aca201U,
  0xbf45e68c411766beU, 0xc11991ad40c62d24U, 0x3fb47bbfc0fdb331U, 0xbef7d92040bcf920U,
  0x40a3dbcac18ac975U, 0x4080a15cbfc27188U, 0x3ec3077b4043028fU, 0xc0130f44c10a6980U,
  0x40491e934037d245U, 0x4077b33b409213b1U, 0xc06773b3400f2e72U, 0xc1d5f159c222e839U,
  0x40d84d7e411f11bdU, 0x41fe1b83c100afc9U, 0xc0f79658c20d1e2fU, 0x4029acbb41b8a59bU,
  0xc15e4ad641d71f3fU, 0xc08b18a63fb10444U, 0xbfa0a044c09e0257U, 0x40b0f2b6c143c4d9U,
  0x40e89b27c0ed6976U, 0xc106f9e0c218b32fU, 0x3fab85d6c0f3d842U, 0x410e62b73fdc95e5U,
  0xc182c87ac17771ffU, 0x410caffd41aefe01U, 0x40eedd7540f7e3a8U, 0x3a642612419962c2U,
  0x3ea03215401f5450U, 0x4169e0af41109bc3U, 0xbee2882840a7ab05U, 0xc1584fdcc1f9ed2dU,
  0xc135279dc0efc73dU, 0xc1abbf003e3dcb90U, 0xc1f3e00cbf60abcaU, 0xc1237325c142e42bU,
  0x40936f98413ef23eU, 0x40e14803c1dc4f8eU, 0x40ba585b40917eccU, 0x3f758a5cc14011e2U,
  0xbfd4e16c407d7b4aU, 0xc10ca1fe420cec68U, 0x40583410c0aee2dcU, 0x40e1181d3d396ab3U,
  0xc13c0360c03f1514U, 0xc058e1a6c0a1bc94U, 0x416fffd8c17ccc2cU, 0xc1a5f0a0c084c1bfU,
  0xc0eb9b3ec19d7b68U, 0x41375f1bc0d7c4dbU, 0xbd00fcddc1754c99U, 0xbf820c284282544aU,
  0x409e3ffb41f5084bU, 0xc14aa8b4c19fa548U, 0x4075d947c204c767U, 0xc018b89f41304668U,
  0xc10ea577c07e65c3U, 0xc0f73dc8418529b7U, 0xc1322cdb40ab674bU, 0x40066bab417a1c67U,
  0xc0faf629405d53b7U, 0xc232fe5b41e9a927U, 0x40d21313c0d63a5dU, 0xbf6944a43ed48110U,
  0x412a6aa5418e42b6U, 0x416c50d3c163db01U, 0x420dcb4abf817bfaU, 0xc00f43b4bf09d3ecU,
  0xc15f35e3406e7d8aU, 0x4082a8f3416f76f3U, 0x3fdf7758bf24ccb9U, 0xc2231db4c18aa947U,
  0xc00800fec0d2be24U, 0xc14b205dc135f6f5U, 0x4100dcb640964f45U, 0x41ae87bac05c47abU,
  0x412b932fc16f392dU, 0x41163ac5c1baacddU, 0x41152d1cc0aa19fdU, 0xc152916bc091b4e0U,
  0x41657306c0998272U, 0x40a6a5f040d3c7c2U, 0x3f8cc90f4146bfddU, 0xc1e53162c151aaa9U,
  0x41f7b9d4412870e7U, 0xc058640a408a71ebU, 0xc13427bbc123ad26U, 0xc026e03dc072946bU,
  0x420a08d4416b78dbU, 0xbf020a083f99f7c8U, 0xc16c4c63410a03b5U, 0x41c7f06ec09489e2U,
  0x407cb053c1194f57U, 0xc1e89db5c1392215U, 0x41801967412f8236U, 0xbfd7d59840acfb30U,
  0xc0e6e3134110e0e9U, 0x414ec715c0af14deU, 0x4042685bc1217557U, 0xc0621ebd41586441U,
  0x4191614bc12e72abU, 0x41dac3c541db6c34U, 0xbff6b21c3d1f7d0cU, 0x419e429140c23b09U,
  0xbf88380a40158ff1U, 0x40c4fba1401dfd77U, 0x41db3439c034232fU, 0x411df0a741c5e797U,
  0xc0cf8ff2c16d66bbU, 0x41753fe0416abef7U, 0x404c41d9c0c06bb7U, 0xc1b193c641997e22U,
  0x405a74af4033560dU, 0xc15355c1c09a3dddU, 0xc0be88214056d6a2U, 0x416b302c41a65ff5U,
  0x411cc15fc069d781U, 0xc194c1a7c18d263eU, 0xc0c8042cc176d43bU, 0xc0ceaf3a3fb35cf0U,
  0x40d07363c16a2c37U, 0x40ea7aab412e043dU, 0xc004b37c42082139U, 0xc102a759402e66d7U,
  0x3f68f8e0c1b6e59dU, 0xc106ec4ec1c2891bU, 0x40034edcc13a4eaeU, 0x4150c200400b8c40U,
  0x4122d081c121013dU, 0xc146bc0bc18507dbU, 0x416ecaad41539553U, 0xc179670bc226cc18U,
  0x40ebd3ffc14eb1f6U, 0x4177b19ec0ac3408U, 0x3ebba735c0b515a2U, 0x412d4d4841354d9fU,
  0x400a1031410ea389U, 0x3fd45757c0539aafU, 0xbfdbeb00bf861eb6U, 0x4094128d3f0d00ddU,
  0x40bb80fcbff00a45U, 0x422b4f6640bc773bU, 0xc0d75bd3c09dc40fU, 0x40a6f7bbc0d69d35U,
  0xc16ae27ac123d9c4U, 0x418ce1ad40955de2U, 0x418fc9f9be389224U, 0x41ce295f418d99eeU,
  0xbf1e2ee2c09cd76eU, 0xc0e676f2c03910cbU, 0x4196b4ffc0ea966dU, 0xbf37a8bf419b6ac3U,
  0x3fca8423c18d21d5U, 0x41ab222140b637c8U, 0x403062dd3fed1804U, 0xbf6372d4c08efb85U,
  0x3ec66d89c1bd8605U, 0x40138c9ec112a9a1U, 0x3fcbd483c1193411U, 0x40ed9ca5c0d1fbdeU,
  0x4104dd5a40002f27U, 0xc1b21e7e41e4cddcU, 0x413502fcc0e8e29cU, 0xc056613340ee15b6U,
  0x4031bb8c41aa4617U, 0x401db52fc19f1a45U, 0x41d14b5ac19a9f28U, 0xc137fb0abf859ca5U,
  0xc152ef7e419e2348U, 0xc082d6014138a160U, 0x413f6bf8c144b967U, 0xc1caaf8bc1ca4e3dU,
  0xc101d7dec0310069U, 0xc0c985844133956cU, 0xc1ca3382c04713b8U, 0xc1b191ce40c14a78U,
  0x3fc6be74418c2e04U, 0xc0c928a7c0df61b4U, 0x40c8a67ebfabeaeeU, 0xc098b181c0de5565U,
  0xc0dfd1cb414f020aU, 0x40c47be1c0eae05cU, 0xc0fc512ec1002039U, 0xbfcf4be1c1194d0dU,
  0xc13f51d6c149d274U, 0x41463167c112c50cU, 0xc0e6dc80c1040c06U, 0x40e6d8cbc042335eU,
  0xbfe9aff2c10718feU, 0xc0636a8d40ce8ab9U, 0x404cfa6cc10aecf5U, 0x420f012ac16474ffU,
  0xc00781dec1ad8919U, 0xc146120ec1f10f9eU, 0x415def07c06cd5a0U, 0xbeaf9dc3414e886cU,
  0x40bf98223fb8fab1U, 0x40c2e047c160c4e7U, 0x417ab803c10736c0U, 0xc0eadd1540c72a4bU,
  0xc0bf01f94089b3cdU, 0xc20ed613c17d2247U, 0xc0f1b6bac177ccc2U, 0x412cf62d41a066b5U,
  0xc0d374fe41cbcf3eU, 0xc12cc0bfc1913735U, 0xc1472b00c1e79820U, 0x4189610841ad59adU,
  0xc03b3a533c777965U, 0xbfcb7533c0b62db5U, 0xc0709189408a72d8U, 0xc1e36549c0bbb5daU,
  0x41788edb41742857U, 0xc18e719c40f032f8U, 0x4005464dc1b8c9f6U, 0x420389acc107e93eU,
  0xc19c0ff1bf45e53aU, 0x40a2ec68beea2807U, 0xbfd079db41723fa2U, 0x4129b8f0c1acaf5bU,
  0xc1594bacc1898f44U, 0xc111e84b41d7de8cU, 0x41055c904184890cU, 0xc1626c0ac1a3d386U,
  0xc183db48c11fab34U, 0x40da64884038428bU, 0xc0edad2dc0ecb10fU, 0xc112dc83410d7888U,
  0xc14ab421419a57f8U, 0x408d6037408564bdU, 0x41054c37413b86c7U, 0x41fa6b32c21e62aeU,
  0x40ba5804c1df5d91U, 0xc1377658c1995d7aU, 0x416f2f3c40efef5fU, 0xc09b53644185d856U,
  0xc1449d903e11a9e6U, 0x412fc482c118d8aaU, 0x41807467c10c06fbU, 0xc11170f740f7d63eU,
  0xc0b24dc2c0d6676bU, 0xbf38c8cbc2359b17U, 0xbfbb4693c1973580U, 0x3e437593c1034cddU,
  0x4194a59b412f6857U, 0xc138d6cdbf8fd1a4U, 0xc06dae58c1cbacd4U, 0x416220e1c0573bc7U,
  0xc0597fc040eae4abU, 0x41179180c15988f8U, 0x40668aa8417553faU, 0xc00da876c20d46d1U,
  0xc10924e3c1d93763U, 0x3f895c60c061c5efU, 0x410820a441580df0U, 0x41a6bcfb413e501bU,
  0xc0141edfc100cab7U, 0xc069c81940ce0234U, 0xc03c14483ef3fb02U, 0x401c6fb3c18ff93aU,
  0xc19381bfc0d244b3U, 0x41fb63cbc1decdf2U, 0x3fc9591541920260U, 0x41d844f24203c21dU,
  0xc08e1ecbc142b77fU, 0xc126d7e8c16c1424U, 0xc001a5b2bf99878fU, 0x411eb87440c22abcU,
  0xc023f21d415c604dU, 0xc0c708e04153960dU, 0x40d266cdc0c646f6U, 0x41e3c8b5c226d2efU,
  0xc10bb09fc0c4eed7U, 0xc1e6b1dfc1ab1070U, 0xc18ead0cc1c07a58U, 0xc017ca98c1f6c9beU,
  0x4138f5b93f766b74U, 0xc16d16923eb55722U, 0x4104ea2141918f4cU, 0x40c5709ac01ca92eU,
  0x41162977c14b2b65U, 0x424658ee41b35accU, 0xc01b022d412e7573U, 0x40c3f6924232ee8fU,
  0xc02d5a9a41038c22U, 0xc08299cd41880cbaU, 0xc0ada24140d3fd89U, 0x406de490c1bbd8f9U,
  0x410b10cac0430282U, 0xc02731eac13cad80U, 0x41126c433f94f016U, 0xc13b79efc1c24a14U,
  0x41c733c041899327U, 0x41a71446c0c1aab1U, 0x412a6b4bc1c00132U, 0x3fed891b4107e56cU,
  0xc080313e4120bc3dU, 0xc0c03ce44134cbdeU, 0xc0c06267bf649d71U, 0xc0ee7385bfaf79bbU,
  0x408b5f7f40da2e79U, 0x42160b16c13d672cU, 0xbf2c114bc0e16c02U, 0xc05607bbbdacf3cbU,
  0x4114d0ff40c84750U, 0x40759f0241335fffU, 0xc0032db2409a71e7U, 0xc017d20640918b51U,
  0x3fd2c438c1280cffU, 0x401aea44412627cbU, 0x3f85f1f0c0e0295fU, 0xc1a25305421c449bU,
  0xc06e1b6a4129606aU, 0x3f907bbc3f68ad87U, 0xc1454e91c0ce696cU, 0xbfdf67c0c1646fa1U,
  0x402a6417bee0b598U, 0x4116f940c0f61c63U, 0x3fabaf653df08d3cU, 0xc0b94955bf310a86U,
  0x409ec5ae4047b855U, 0x42191dcac0e1fa67U, 0xbfe34d9c40140970U, 0x417f7166418c6f45U,
  0x40eb96afc1a21c9cU, 0x403c6972c15af5e8U, 0x41168ef041759e4aU, 0x40e7d6b3c0b73405U,
  0xc06c34bbc0ddd850U, 0x40e73d87bff92664U, 0xc044fbc8c099dbfcU, 0x41624b4f41b6522aU,
  0xc0638cb741330553U, 0x3cbd49c8bf949ec5U, 0x3f5c7b4041432758U, 0x408b0cb0c18f16fdU,
  0xc1bac9174099a988U, 0x4069d7f240945b44U, 0x40381201c041c802U, 0xc01312da41c4b24fU,
  0x4099ba4140348457U, 0x3ddc96c2be98e53dU, 0x3be9e8a7bf822037U, 0x3d1b9368bec2e352U,
  0x3f4a3cce3f325e96U, 0x3f8895d5bf3915e0U, 0x3fcb3a8a3f13ddf2U, 0xbf7e7716be6e7d89U,
  0x3edc9a77bfb2fa05U, 0xbf066e7f3f9fb4b6U, 0x3e6a2dd2beabfb3cU, 0xc0445826c08c358fU,
  0xc10e371c3f85eabcU, 0x40f1ecaec029d220U, 0xbd089f653ee636d3U, 0xc0508c043ec35dddU,
  0xbe5c40b740b72ad9U, 0xbed3156040812191U, 0x3ff2f1413ed906feU, 0xbfc6eb0b4008da13U,
  0xc00a27cec063eb93U, 0x3f02b130be8457e6U, 0x3ec96a5a3ef5d7e2U, 0x3f36f1d0be9a97d3U,
  0xbf939f27bfe21d1aU, 0xbe03a61a3f5d6286U, 0xbf66ee813fef1291U, 0xbd0914fa3f960e50U,
  0x3ecd699240318196U, 0x3f74f483be4c4055U, 0x3f6f15983f820d7fU, 0xbfbee9b0402a0317U,
  0x3ec0948ec0041da3U, 0x40237c174022b4cfU, 0xbf91b15ec0627aafU, 0x3fda539d400c64a6U,
  0xc02a0e7d3e951ab6U, 0xbf73c5743ef6e7b0U, 0xc0377703bf0ae9ddU, 0x3f2a0d133ff7bbdaU,
  0xc02584b5c0159ee9U, 0x3f1b4d733e893c5eU, 0x3f9ad5d83f434b8eU, 0x3df089823f02afcdU,
  0xbf0ee1adbf290af4U, 0xbf8c09f53c01272aU, 0xbe2eb4603f10b5a2U, 0x3f48020cbf55dfd4U,
  0x3f4bc38cbf9263a8U, 0xbf055f3ebf2911afU, 0xbf307c1a3f0035b3U, 0xbdae47e4be5e9a08U,
  0xbec27091c00085ebU, 0x3e065ef240264ed3U, 0x3e83a4c03f82344cU, 0x3f9144eebe82b1a6U,
  0x3f89b3c9bfb77c1aU, 0xbd3d2f35bdd67507U, 0xbe266952be692a3bU, 0xbf026767c017e711U,
  0x3ff5a2223fe01dc7U, 0xbec4ac963e1e0cbaU, 0xbcbde05a3e8d8fdbU, 0x3ea22c3e3ef585b2U,
  0xbf007a7b3ef8e5e8U, 0xbeb483c7bebf9deaU, 0x3dd7406ebf3ab860U, 0x3d9b84ac3eb77a9fU,
  0xbe9d8ae43df0839fU, 0xbf4bd8b43f937c23U, 0xbee44ff3be8f4305U, 0x3c758c57bd72f7d6U,
  0x3f055bf3bef70c98U, 0xbd5c25a63ea18a2bU, 0x3f0a856c3d74c65bU, 0x3e068c3fbeb41a1dU,
  0x3e398128bf31168bU, 0x3cecbf5ebef38743U, 0x3f7f73d5bf0833afU, 0xbf0cba0c3e9302ddU,
  0xbedcf0903f2f5b68U, 0xbf9723133f40f7fcU, 0x3e748ede3d659886U, 0x3d6ae9983f09fa1cU,
  0xc022504dbe06eec5U, 0xbeb12f9e3f954a3fU, 0xbf6cd592bf1fde60U, 0x3eded5e83f580f89U,
  0xbf55d6243ffa6002U, 0x3f334dfb3da29be0U, 0x3f02c1d33ef827daU, 0x40da2e8dc0c10fdbU,
  0x41281cfdbd41032eU, 0xc0fd723540e68eb1U, 0x403f802bc1850d18U, 0x3d556997c162798bU,
  0x4178a9cc40c33963U, 0x4085b222c132bd14U, 0x40c162083f53a092U, 0xc0dabf404187b51aU,
  0x3f90068e3fb2877dU, 0xbfd99c50bf8f41f4U, 0xbff626343d99019bU, 0xbfd9a52840842622U,
  0xc0d70c083ed0c24cU, 0x40694ff9c0b5a53dU, 0x3f4934e54060e376U, 0x3f17b75cbf610d7bU,
  0x40808c6cc0077e03U, 0x404d2a2ac083391aU, 0xc0eddac3406a89d2U, 0x413ad5e6be5f474fU,
  0xc13f2c5a402d6605U, 0xc0197e4c3f99183bU, 0x40c4b525c0939c4dU, 0xc0504d504033afd3U,
  0x3f0d0e413edff897U, 0xc089edb5408b718eU, 0xbfd774f33fc2ee2cU, 0xc0dd782a40bb0f93U,
  0x40659e46c0b89e9dU, 0xc038aa503f3f2447U, 0xc0102abc401ec635U, 0x40316b704050c66dU,
  0x3fc9c3ca3f62b5aeU, 0xc032d6d6401320ffU, 0xbfa44b253e8ea84aU, 0x3f59c3d7c0e3640dU,
  0x401cd786c05d3998U, 0x402d01fdbda1a29fU, 0x40200fd43dd2d83eU, 0x401aa107c14e4331U,
  0xc0ef416d4063560eU, 0x40b81da5c0ad9d39U, 0xc010ea9940c1bbadU, 0x3ec2fda3be5ff125U,
  0xc0905a3841102e09U, 0xc0d6da06c0cc459aU, 0x3ff12ddbc0d3771cU, 0xc0c4ca8abfca07c4U,
  0xc108f111c07746d3U, 0xc048068bbf5acf17U, 0xc07845613e02fe3bU, 0xbf92201cc003ecbeU,
  0xc01d5a303f30959eU, 0x3fa8f61fbffb3072U, 0xbf93dcaabfda7c18U, 0x3f951d52c05d52f1U,
  0x3f2905d9bf763c38U, 0x409107dfc0013d87U, 0x3f9b0638c0a02868U, 0xc0547e333f165a60U,
  0xc071b6244050ab72U, 0x40a030a4c0f061ecU, 0x40243b4040b813c1U, 0x40e3fde63d4a8f7dU,
  0x3f3aaa4b40ce2aceU, 0x4068eb81bec63259U, 0xc0517ce9c009d473U, 0x3d834a5440e8ab34U,
  0x40972c5d40971cd8U, 0xc0afc149408aa683U, 0xbd1062b6405f075fU, 0xbf82783b3ffdd5d0U,
  0xc08f0e43404c7f73U, 0xc08fdea540fbbd18U, 0x3f149c06c0b6618fU, 0x3ee5535dc0454ab0U,
  0xc0e3b729c0a37cd2U, 0x4092804dc1110126U, 0x4093f9973f81a6d4U, 0xc08f8e39c0a4ee60U,
  0x401eec754053b257U, 0xc14aa316409fc974U, 0x3f7b1fd04007ab20U, 0x3f69c674408739c6U,
  0x404194db40e3afd9U, 0x41314443c09c7e17U, 0x3eca79e1bf916100U, 0x4022a6a7bfea865bU,
  0x402a4cbdc08710c5U, 0xbebac65ac08d9413U, 0x4006a9cbc104e51eU, 0x410f1723bfaab2a4U,
  0xbe297b343eca5024U, 0xc136c616c0ae92d1U, 0xc0dc7148c018e577U, 0x409861793f9d2622U,
  0x40a793dc40aa30ebU, 0x3fc08166400865f8U, 0xc0dd8492c119f5efU, 0xc0845c9ec09dcd62U,
  0xc18184f1409780bcU, 0x4067ff78be0b0bf3U, 0x41083939c07b8ecfU, 0x413f4223be11a3edU,
  0x3d4604eebe963510U, 0xc00f7e043fad22a0U, 0x3f4bf95e40bda577U, 0xc0120d6dc071a122U,
  0x4032288340316bc3U, 0x411ac41e3fbbf482U, 0xc02e5d1d409be56eU, 0x410a1a61405b2048U,
  0xc01861bcc05f408bU, 0x40b35613c1113262U, 0xc0bb9f94c1426a6dU, 0xbfd0588b4048778bU,
  0x4038e37840a97e35U, 0x409975ffc12e1026U, 0xc118422bc115b02aU, 0x40128aaac0d42e4bU,
  0x3fa87b8b3ef6052dU, 0xc01236cc4051e6b3U, 0x3f82f370c11cb66eU, 0xc0065a0d3e468e5aU,
  0x3e9522ecbffc3a20U, 0x410ad630c0437964U, 0xc02ba2813f2375b4U, 0xc09ffe8c40cc4ddeU,
  0x3e1d28c8c095ad39U, 0x402fb499becdb5fdU, 0xc0d5f6bbbfcf9c08U, 0x3ddbc474bfd6aad7U,
  0xbf85d37bbedc821bU, 0xc0c4c03cc11ea36dU, 0xc0309ba740af0bc9U, 0x40e141d840b23f46U,
  0x3ff759c9401bcb33U, 0xbf98d1f140711c47U, 0x401fb221c1375613U, 0x40305e833ff835dfU,
  0x4144f74741064addU, 0x40a0c919c11d4cb2U, 0xc113c64641094e1cU, 0xbf90d19340e30b7dU,
  0x3fd2c3adbf52f1beU, 0x400c7a43c00083a1U, 0xc00a78b8c007d596U, 0x40c06d353ffe9cf0U,
  0x408bd8be40b8c93cU, 0xbfbabcb340412169U, 0xc00448433da38a54U, 0xbeae72493f6cd33dU,
  0xbfea379cc0518406U, 0x40a288fa4036fc0dU, 0xbeb111f1c00361e1U, 0xbfacdb88c0658c95U,
  0xc1208d05c0b4082aU, 0x407dfc2ec080997fU, 0x4098a3c83ff0765eU, 0xbf8829c93ea51f87U,
  0x408277813f812ff0U, 0xc072729c3eb1126bU, 0xbeec3195bf5b53ceU, 0x3fae915840767119U,
  0x3e99c03abfc27f9bU, 0xbff2cf7dc0311900U, 0x3f34b9323e059c20U, 0x4042b4213ef4f3ffU,
  0x3e8a23c440657752U, 0x40b5127840dcaee3U, 0xbf546a19c06f77b5U, 0xc0bee851bf974ba7U,
  0x3f176249bd5ef64aU, 0x40122288c0695d34U, 0x3f60688dc01fa944U, 0x3f095da9c021f9f1U,
  0xc0bf3e93c0b61a1cU, 0xc0580df2c04d01f2U, 0x40359567c04a0fbeU, 0xc154890bc16c8f12U,
  0x402fe972413b7204U, 0xc0931e04c0107481U, 0x40190c96c0a882e8U, 0xc0923ab540bed3c3U,
  0x3f715515c09ae633U, 0xc070a66740be6513U, 0x40299d6e3ff70427U, 0x4129d6b3c0854f43U,
  0x408dd624bff0350aU, 0xbf86e4e1c10ce3d6U, 0x4113d0f63f3ef106U, 0xc050231bbee87a92U,
  0xc0da97003fa5eb96U, 0xc0a3d0c6c115d3e5U, 0xc149f34cc107d038U, 0x408b2c3cc04f71afU,
  0x40882c103fc19cb4U, 0xc0080242c0870e76U, 0xc0a41204c0baef60U, 0x3fa4d20f3fb1feacU,
  0xbf1ba324c0bdf6a5U, 0x409ae8cd408760b9U, 0xc024f41a3fd760b6U, 0x40c68adcc0c8701cU,
  0xc0ea233abf4b174aU, 0xc0a0a4bc3f90c6b3U, 0xbfecec90c0a8893eU, 0x402158fa3f83ebe4U,
  0xbfcce1af408a8071U, 0x3fbbcff340be4ed7U, 0xc0f3eb484016b4b1U, 0x40b2974d401777f1U,
  0xc02d710a40655c25U, 0x40f90a5dbfd4b5d4U, 0xc06d1f66c114b355U, 0x3fdc0cdc3fef10c7U,
  0xc12ee71bc1210ad1U, 0x40b9881f3f72371cU, 0x3ebd98efc00038efU, 0x3df5cae2c017dd39U,
  0x40b095b1404c6870U, 0x3ffb28f8c03025dfU, 0xc111845a4137239eU, 0x403d8dbabebe2c45U,
  0xc0334e144058d5abU, 0xbf7a784cbf08a9a4U, 0xc076e2c6c090a8f7U, 0xbf864d093f61afc5U,
  0xc0bf85154092d173U, 0xc080f02b40c9ac2cU, 0xc1189dd8be1ed8d9U, 0xbf840f4740c22d44U,
  0x40672240c057ff03U, 0x3fb083463fc35df8U, 0x40812fadc02691afU, 0xc072887e3ffcdb5bU,
  0xbfcb790340114015U, 0xc0963c783e656497U, 0xc07a114abefa3128U, 0x4129ad52c0989d67U,
  0xc116f86940f087daU, 0xbce0e81fbfd0f6efU, 0xbfb52cdd3f67da47U, 0xc0d79da440a55f28U,
  0x40645f7dbe6e9895U, 0xc089e4c33f4ff922U, 0x40e877e440f00ea7U, 0xc087363741093108U,
  0xbfec383d40c21471U, 0xc0ea884b40db7f19U, 0x40f9dd1ebfc3f586U, 0x405a4ac43f5feb58U,
  0xc0db825340e76891U, 0xc0da84964118b402U, 0xc0c9bb6b3f9b4311U, 0x413d41edc03c9557U,
  0xc080ca9440dd7977U, 0x413703dfc11a7e87U, 0x3ee4b89840bbed29U, 0x406301614082cffbU,
  0x41626876bfa74321U, 0xc08310dd3f9fcc6bU, 0xbfbabb67bc23c4c9U, 0xc0d3f07b3d873433U,
  0xbfc9240c3e30fa96U, 0x400e1d163f1d675fU, 0xc0d2782c406e2f63U, 0xc0466bbebf57ad20U,
  0xbf77be24c1311b52U, 0x40edd2dd411eea0eU, 0x4117e2e8c1101fd8U, 0xc15046754123b539U,
  0x40ef44ebc13af964U, 0x404e182b3fde6dbaU, 0xbefab80b3f64f35bU, 0x407728663ff8ccf0U,
  0x3f73fc083fdbd927U, 0x40c3dbddbfb938d8U, 0x3e4729a2c0ce72ecU, 0xbfd633e0c035e173U,
  0xc0337ebc3fa2d8c9U, 0x3fe489a840d0d6acU, 0x3fe423f1bf2ea21bU, 0xbe8ddf193d48aa4cU,
  0xc071d38f3f7df1e6U, 0x40dbd7b4c0680929U, 0xc01638f6bf8f737cU, 0x4103bcdd3d2995f8U,
  0x40973e9e3f418019U, 0x40135a60c129850cU, 0x409ae3dac10f2f41U, 0x40cfe642bff2fe13U,
  0xc0497038c0c5678cU, 0xbed71e27bfbb04ebU, 0xc0ad7f263fb52243U, 0x3fa30c68c0cc2540U,
  0x40e727be402a49e1U, 0xbfc0eee540f57d7aU, 0xc09a5240c094c881U, 0xc07de9bfc0f766d6U,
  0xc09468ec409b934eU, 0x40c6e4e0bf310e5fU, 0x3e58c9054034f503U, 0xc02876fe3fe40787U,
  0xc027bedfbf270b40U, 0xc104f1f4c0415cafU, 0x40df047540f0f44dU, 0x40d2d407c03efa5aU,
  0xc0421d8f402ff554U, 0xbfbf3e62402db3abU, 0xbff75d74c0cfcecdU, 0xc09027be408d22a0U,
  0x410e6692c12e4996U, 0xc0469036c052ca67U, 0xbffb45473e4f59c4U, 0x401c6cc7c02e6cb1U,
  0xc0011119bf566e44U, 0x3d387a8fc021ebddU, 0xc0a7bb82bfb94020U, 0xc01476884017dbadU,
  0xc1554eb7c09ccf5eU, 0xbf5b42afbfa3e479U, 0x408c2e7dbfa14186U, 0x40903fba4063acc1U,
  0xbf2f894dbff6b0ccU, 0x4069ef68c0a1b3bfU, 0x40fbbb8a3e88b190U, 0x409c6010c0900badU,
  0xc0e7e244bffffe63U, 0xc073bcd2c0cf5c14U, 0xc18299ca4094aaceU, 0x4126b8b7c0dba20cU,
  0x40453c18404f78cdU, 0x3fabe7e73f466248U, 0x3fdc0f28c04059cdU, 0x400e826c3f32e015U,
  0x403a0f5dc00c3a27U, 0x3fe75741bdd11f68U, 0x4083e9ee410e8c90U, 0xbee03abec0cb4708U,
  0xc0e49e19409101feU, 0x3ffa378340a9d3b3U, 0xc086c4dabfe70ddfU, 0xbe7b8f82c00b3ec8U,
  0xc0226e7440984df5U, 0x40d3499b4081fadbU, 0xc0e4c7d5c02af81bU, 0x3fd007fbc089594bU,
  0xbf9b0093c0d11b88U, 0x407007fabf4693bbU, 0x40ad7fbbc07abca4U, 0x401737cc40b4a68cU,
  0xc094936ec023a2b2U, 0x3f3fab63c065d636U, 0xc0860be3c0103a07U, 0xc0a4748fbf397b96U,
  0x40199fb9bf575f14U, 0x3ff67fa03e5088b2U, 0xc13b30ba40977823U, 0xc12b584bbf564146U,
  0xc0e293323f82b443U, 0x3ec339bcbf14fa0cU, 0xc0c5ac3b40ea84caU, 0xc041895dc08b4c32U,
  0x40048c313fc32fbcU, 0x400ba4373fef1703U, 0x3ff4335d4054af46U, 0xc0c413504078b63eU,
  0x40d3495040aad1b5U, 0x40e547524139e752U, 0x40418dd1bf14fbf2U, 0xc0fce9013fb8ba2cU,
  0x408e3d74c05006f7U, 0xc08502e34098a19fU, 0x40d89a3640644fc6U, 0x4067976540e85521U,
  0xc1164d45c05ec5adU, 0x3eb8f9b0c0a7eff9U, 0x407a59083fa50ed2U, 0x400d8eb53fb34be7U,
  0x3d872cd54084d0abU, 0xbe823e36c07ef4e1U, 0xbf218a18bf23e4b9U, 0x3f02e80abf670e28U,
  0xc055d3c3bfdde748U, 0xbf921c8dc00480f1U, 0xc02d73113ffbf0f7U, 0x402258b2bff46926U,
  0x407ea6373fb63ea0U, 0xc14658f3c097eed4U, 0x3f687605c079efe5U, 0x41108b19c064c011U,
  0xc095f835c02b4911U, 0x410fe7ca3f8d4efaU, 0xc0d4c14dbfe22684U, 0x409c18dc4066a3ecU,
  0xc0ec27cc3ff760ebU, 0x412db8edbfa5365cU, 0xbfc88a5ac10fe176U, 0x40b2a3e2c04bd8eeU,
  0xc16a569a414b34ecU, 0x408d4703c085a8d1U, 0xc030fcd041053e8cU, 0xc04f8d8ebf0e354fU,
  0x4111cd2dbf4b698cU, 0x3f91866fc070014cU, 0x40f4e4154049367aU, 0xbf5d547dc094caf4U,
  0xc002f4c44181b4daU, 0xbf89ebe93f6da652U, 0xc158b662405c4ee5U, 0x402223cac0856a5aU,
  0xbf91226c3f9e956dU, 0x3f760f3ec05699eeU, 0x3dad64adc066b69bU, 0xc0c89482bf9ab580U,
  0x3fcd0033bffe11c0U, 0xbf23981ac09ab971U, 0x3fec44ff3f0f6699U, 0x407e57dd403d16b4U,
  0x3fa4dd7ac05fcd17U, 0x411b2a8fc0c7c218U, 0x410c7d3fc056cd64U, 0xbfb1f0a7410bb625U,
  0x40e19271c0026e6cU, 0xc01c3d8fc0afd1a8U, 0x3f91b0a44060329bU, 0xc06d143cc00a3290U,
  0xc017e68c4099c75dU, 0x40477d20c0493eb3U, 0x407e85d93fe2bdadU, 0x40a30f34c1077ec6U,
  0x3c5479734045eebfU, 0xc00db72ac09dded1U, 0xbfdda983beb75476U, 0xbff9839b41051484U,
  0x4039d04e3fa0c987U, 0x3d4beefec066bcf1U, 0x40569f3040298997U, 0x41a0e2c3c0246e63U,
  0xbf58884440a3dee8U, 0x40d033fd4143d5e6U, 0x402d2e7d4137cd27U, 0x412e8b4d40572caeU,
  0xc026c1aa3ffe9243U, 0xc0b34caebfb355efU, 0x4142241e4086abecU, 0xc117a9da40c4e2bfU,
  0x4023733abde4f7c6U, 0x4006dc47bfc29729U, 0xc0ee0744405179b0U, 0xc0b986503f9cba05U,
  0xc09f2d47c07eea5dU, 0xc061de073d2b26c5U, 0x40f2fdddc08c5cf7U, 0x40250e1abf5fd53cU,
  0xc0398717c052d10cU, 0xc102cf01becec79aU, 0x3f7ea3f4c0a92ca0U, 0xc0793bcd40bdcd17U,
  0x418263143f6a4a76U, 0xbf83447ec076a9bcU, 0xc09112c13f44a03cU, 0xbe18d2a3c0626afdU,
  0x3fb7acca3bb311c7U, 0xc02f16373db74ee7U, 0x400459943f99dc31U, 0xbfe9ac923fcf1881U,
  0xbf762e36be16e4b9U, 0x40dc8d6ac0f51be7U, 0x4030286bc13e6a18U, 0xc06ca548bfa450b9U,
  0xc0687911c0510c28U, 0xc0ff18b440925303U, 0x3ff468b341275a76U, 0x413af78f40807484U,
  0xc0be2a3bc1066f12U, 0xc020b60fc0d236efU, 0x400a7d90406c5949U, 0xbf349622c0a9ae53U,
  0xc16b54c7c05eabd4U, 0xbfe539fd40919c9bU, 0x40a64cfdc0b14a45U, 0x3f8851d13d2ed537U,
  0x3f805c4cc0038545U, 0xc0c47703c041d3cfU, 0x40853af93f997794U, 0x40e0f736c0cda5f9U,
  0x3fa4df33400b7851U, 0x40130c614133b4e9U, 0xc115c173bf408f88U, 0xbf928e7b40106db0U,
  0x40ce76fbc0918782U, 0x401caffcbf1e1bb1U, 0x3f7e1844bfdb3c50U, 0x3fe0f6c64004ea02U,
  0xc02f2f613f104b46U, 0xc028f3c9becc18d1U, 0x3f975010c009710aU, 0xbe7f98c2bffca2b3U,
  0x4160f96ec11f3077U, 0xc05c3c7340ad1256U, 0x40ac3c2ec12acbe2U, 0xc0e3d5193e81ee2eU,
  0x3fb18297bf11c7b0U, 0xc01b427a4003f4bbU, 0xc12539b5408bd0c3U, 0x3f406c21c01dc8e4U,
  0xbfd2668bc0cdae81U, 0xbfafd70dc10d557bU, 0x413160f9c046e48bU, 0xbf6a4f6fc0b4f164U,
  0x4031c4d43e88ff3eU, 0x3c9516c9c08b9a42U, 0xc160053bc0663bf7U, 0xc0f59f4dc0d692aaU,
  0x3fdd5f734102f7e5U, 0x40dbc1e0c0d149e3U, 0xbfd25f7d40a4691fU, 0x3ead4bd8be4cf085U,
  0x3e940425c0d7e2f6U, 0x407c705e3f2cb363U, 0xbf3ee5c840af2425U, 0x401d9fb3400017ccU,
  0xbfd99eb4bfdc7b5fU, 0xc00f2a7b400c9071U, 0x3f8a90d83ff3dd91U, 0x3fc3f9fdbdaac290U,
  0xc03fb0a34087da88U, 0x4102a88abf63f185U, 0x4174a7b44090cc36U, 0xc0c110a13e969bc5U,
  0xc0bf33e3bf7c8ee9U, 0xc0d253273f4e2bd3U, 0x40118e053ef43029U, 0x40ba4411c094bcecU,
  0xc03ec8933f1ca5eaU, 0xc07e5088c038c925U, 0x3dd19194bff7137fU, 0xc18606aac1b3bd94U,
  0x4116855f40a74a25U, 0xc1acf588bfc59702U, 0x410b8e184027c6bbU, 0xc100d83b41809ca8U,
  0x40faf1c8c1766bd5U, 0x3fad6c8bc084385cU, 0xc0294e024088aa4bU, 0xbfe976553fcab773U,
  0x413985d241380446U, 0xbf683234c03203c0U, 0x407c2c6ec10634f0U, 0x4097a06bc049a749U,
  0xc00e691e3e61b968U, 0xc0a421c2bfd2a8dbU, 0x40f7bb813fc0ecd2U, 0xbda017b0409762a0U,
  0x3ede5e21401cd509U, 0xc10d5094bfb7690eU, 0xbf0c37b3bfa1f91cU, 0x3fd08d623fad8c94U,
  0xc00b18ef3e5e1357U, 0xc02e476bc0369283U, 0x404d659b40f6d106U, 0xbfff745cc061561cU,
  0xc082a9643e658951U, 0xc0af51c93fe3c500U, 0xc0607d1dbfb7f448U, 0xbf4ef6b240196743U,
  0xbfc54f0a3ff4fa3fU, 0xc0415363c0b2f88fU, 0xc13d82afc05e9afeU, 0x40f6044cc0602d9bU,
  0xbe9f7798be5ade5dU, 0x402db4933fbe08ceU, 0xc10b4d84c083aa34U, 0xc1121b17bf1d75f6U,
  0xbf834b20c0f4e8f0U, 0xbfc830073f60898aU, 0xc0a001ad40f89254U, 0x405c50fcc09ae329U,
  0x4048e9513d1a38dfU, 0xbff306eb3f41317dU, 0x3f620360c029710dU, 0xc0a01f63bf46fa55U,
  0x3f825819c0b250fdU, 0x4053dce03f0a7250U, 0xbf931970c00abdd0U, 0xc0d9768abf1c40b6U,
  0x4141345fbfdcf602U, 0x4110a4624063c9c6U, 0x3fe1cd36c0f1766eU, 0xbf842bb3c0b880d5U,
  0xc0844415c078870eU, 0x4118675ac0b1ff0aU, 0x41108509c05ad430U, 0x404bc4bec08e965bU,
  0x407bef24409aa2a5U, 0x405ce8ffc10c1766U, 0xbf86a548c04bd72dU, 0xc16f2d4fc056f03aU,
  0x40f4f018bf0106daU, 0x3f01ac49c0870b64U, 0xc150b5914078a786U, 0xc0649d683f986b3bU,
  0xc12ed52bc13720ceU, 0x40803e67c0bd680bU, 0x40d64ae240555555U, 0xbf39d1574063790dU,
  0x4085e5be40d3b6dbU, 0xc0d828d540a923d6U, 0xc08b3932c13b2c74U, 0xbfcd42014106a766U,
  0x40d1e01cc14b26b0U, 0xc040be653fefb4cbU, 0xc0a35f15c0ef8515U, 0xc091bccec0136a8dU,
  0xc0a99aa0408e5e4fU, 0x40860976bfcb9636U, 0xc1195455c0e3f732U, 0x405ae7ab4004009fU,
  0xc085ca613efcacc6U, 0xbea2874a40102711U, 0xc16231313f8eb8f1U, 0x3e28b223411e8660U,
  0x3f66d06f4116ab77U, 0xc0949c5540a3de05U, 0x4182658a41552dd1U, 0x3ff775efc094cf89U,
  0x4096d77740ba17b0U, 0x4055bc44408e55eaU, 0x418e93e7bff79b9aU, 0x41119c85c0f545f0U,
  0xc100fd50410471fdU, 0xbe9595e03ff59186U, 0xc03c66e73f92d6aeU, 0x407ab877bf8a2880U,
  0xc01e77e6c054c098U, 0xc1174ad7beeedd57U, 0xbf9b6a943f368591U, 0x41010dec40a7fcc5U,
  0xc094c209408ee29cU, 0x40ef1c0c4062ff22U, 0x4076fd424083783eU, 0x403b6b51c11e97f0U,
  0x3faf2a95bfdae484U, 0x40c63d2b40a12c2aU, 0x40b4c51d40304210U, 0xc068d3bac08f7ee0U,
  0x40aafce1c0b2e4f8U, 0x40a2a90e3f2ebeceU, 0xc02b384ac10d2560U, 0xc0d7b6eb40d6eb4bU,
  0x40e6a2fec0feff74U, 0xbd9ab8d03e90a926U, 0xbf95f1efc012a866U, 0xbf42008b4101e117U,
  0xc05f1452bef03ef8U, 0xc09a0c83405d64a9U, 0x3f9975443fd5d379U, 0x40948e9940eb659fU,
  0x413fbd50c0d7d953U, 0xc112227ac12cd4f5U, 0x400d0cb440bee6deU, 0x405e5774c131644bU,
  0x40ef13e6c02fa31dU, 0xc0b8fcb23d686654U, 0xc102197ac11d587fU, 0x407404dbc13c83d0U,
  0x40ce45bec0a79dfdU, 0x3fc0fc0cc0534fb4U, 0x3f2a3361c0aeed3fU, 0x40172f96bfbce074U,
  0xc09e11a8bf77c884U, 0x4051bbe7c04ac67eU, 0xbff477b6401d48f5U, 0xbda3eabc3eabf0d9U,
  0xbf835cc5c01c7e8aU, 0xc02f48e33fadf729U, 0xc02b8e9440b4c81aU, 0xc083f24340f6caf3U,
  0x3f125a5f409de3bfU, 0x3eb77b2c3fa0ad91U, 0x4060266a3ec9bb72U, 0x3f62fcdac03f75b6U,
  0xbfb01acd3fd037a5U, 0x3e40da573f43f024U, 0x410cd8b2bf5bb911U, 0x4013af2bc0789f7eU,
  0x4020b599c0765ca2U, 0x40162a1740368d6cU, 0x40a0fd0740430448U, 0xbeeb503e3f73110fU,
  0xbfdf104c3f5162d2U, 0xc01335afc078f089U, 0x40f9d6e53f06eb52U, 0x411f8a10bfc9799fU,
  0xc103d3dbc0e796f5U, 0xbe88ad424028058cU, 0x4018c6c5c04457e1U, 0x3df7540ec0a4e5bfU,
  0x417446913e7991a8U, 0x40c03247c1308ee3U, 0xc111cc8740c650acU, 0xc0a55fafbf93017aU,
  0x408f329940706cb5U, 0xbfa0ce19409b9219U, 0xc089c08d3fc94104U, 0xbfec711c4036bf5fU,
  0x409c2ed9c08e0a13U, 0x409f92b640e8673dU, 0xbfc91173409c4d65U, 0xc055911d404dc85cU,
  0xc0803054c0649cf5U, 0xc0142358c0693f27U, 0x3dfab8013f0017d2U, 0x40bd166dc113c3c9U,
  0x3ff98017c003a1b1U, 0xc09fa1d2bdbe68deU, 0xbff126713f6652f3U, 0x3f6a77c2404b8c9eU,
  0xc0093dcb3f663ff7U, 0x4040a1b2c0c1b415U, 0x3fd2d86dc02ba685U, 0x4099634d3e92a470U,
  0xbff5a6a6c06f8da7U, 0x4024dfe3becf3edaU, 0xc080bb1bc0639347U, 0x40047d463f6e9189U,
  0x3eb614aebef10c14U, 0xbfa4a63ec11774d5U, 0x4013d09d40cc30c4U, 0x3e0a6dc0c0009f61U,
  0xbfc56bf841527c7bU, 0x412835254149e93bU, 0x41124cb1bf9fac5eU, 0xbfd17a07c1884fb9U,
  0xc0be8973c120f8a8U, 0x411f55dbc0fd97b1U, 0x40a25238c0ab77b3U, 0xc097c73e3f82b7b9U,
  0x408c23ecbfe8365aU, 0xc0c75218c01e8dffU, 0xc0d4bd224094593eU, 0x409bafa7bfe61b5eU,
  0xc039873040514810U, 0xc0519678bd9e9220U, 0x41162ee14032c6eeU, 0x4092dcb1c0647d96U,
  0x40c077fc40a3ff78U, 0xbf1788c2bfd16821U, 0x40c7bffe3fe892dbU, 0x3fd33dbe4038624fU,
  0x4033640a403c1d72U, 0x3ff7e60741368c27U, 0xbfd33b9ebf9e171eU, 0x3fc0bf04bf7e5aa9U,
  0xbeabdcae40c25d0dU, 0x402c9a55bfba010cU, 0xbfbe384cc0530ba0U, 0xbfa9a61ebfc378b6U,
  0xc0a96cc040899ae9U, 0xc08347174008dfc0U, 0xc058c8b040ed6037U, 0xbfadb15540e5c0d1U,
  0x3faf6d65bf97c8beU, 0xc046878cc095a3a1U, 0x4129c3dc3f480d1cU, 0x4039652ebf5e2c5aU,
  0x3e2aeaa1c0e606bdU, 0xbf6dcd30be2ec9afU, 0x3f3176a0c0902c87U, 0xc101f59540331637U,
  0x4002d24bc0b095f3U, 0xc01cf702c04e3354U, 0x4026b2e5c0758e22U, 0x3f9dee853f9b5788U,
  0xc01b15f340bd0305U, 0xc0b4a460c02f399bU, 0x4130a27fc0dd3344U, 0xbf6e1a3d3f935ff7U,
  0xc14d08f94107a895U, 0x3fe8918bc0a0a159U, 0xc07afdb9409ed819U, 0xbff9eff7be0b0b2aU,
  0x403d77193ee68cc8U, 0xc04b0456c0197218U, 0x406f37dc3faecb26U, 0xbfce0b8940bb794cU,
  0x402b2d44407c195dU, 0x41255d39c102b0a5U, 0x4008c35b4057c067U, 0xc0c47d48c0e1f512U,
  0x4044da494035875fU, 0x406c8ce7c03b408cU, 0x407d4cdd40ce5154U, 0xc152ca8e40e485b3U,
  0x405d2fa740c68687U, 0x416678ac4017f3a0U, 0x40180f59404e2398U, 0xc02c3ddfc064fc7bU,
  0xc0ad9d43c09ad942U, 0x3fbb51b14000b75bU, 0x410388613f9e11f3U, 0xc08d75013f962d6bU,
  0xc099606c40236081U, 0x40c27fad3fd147e4U, 0x3f759af9404baf28U, 0x3feb0df8bf97d1ebU,
  0xc0169c4f401d30f4U, 0xc0d4b54e411cbe1cU, 0xc12aebdfc099f93fU, 0xc13f9797bfb0507dU,
  0x40d25e16c1057b77U, 0xbf1e4cc2c0a33c20U, 0x4032e0783faa2087U, 0x3f8f3e5dc09f24dbU,
  0xc0ce3b2ec15f6e03U, 0xc0aa2b1ac0881accU, 0xc00b2fa340d33fe1U, 0xbe63db42be80330bU,
  0xbe9b793a3f04dcc1U, 0xbf968e933e811857U, 0x4007395a3fa50206U, 0x3fa98bc8401fc48fU,
  0x3fc7591bbd76436eU, 0x3e02e0b7bfc02824U, 0xc0300ec23fad798bU, 0x3f3892ef40338624U,
  0x40221753bfd1f671U, 0x414beeff402052a3U, 0x41a18775bfee7e15U, 0xbdea9342bfc24a76U,
  0xbfb6943740888a55U, 0x40434b763fb9c7bfU, 0x407d0f144060cbd4U, 0x409a1a4940310bdeU,
  0xbf5c96efc03ca3c2U, 0xbe6fdd3fbff87b64U, 0xc08f01f2bfdf8007U, 0x3fe36239c0d745f7U,
  0xc1860e1f40e3e3fdU, 0xc011a5d8c0094c5cU, 0xbfeef1c83f7c9453U, 0x3f89aa32bf65a156U,
  0x40a90cd53ec0c24dU, 0xc0941feabd553d26U, 0x3fe40dc3405c525cU, 0xc092e532c00be61fU,
  0x4071127840d85221U, 0x3e80c0ae3f29fb98U, 0x3d9edfa940394c4bU, 0x404430a7c08eed33U,
  0x40cdfbd03faad863U, 0x402b2e7ebe733269U, 0xc04945edbec76956U, 0xc032bb9c40225a5cU,
  0x3f8dd0c6be55c0dbU, 0xc0783665be9a01edU, 0x3f7ac8c8c01cdd6fU, 0xc1157c3e40bbd3cdU,
  0x40f0e471c0a1e2b6U, 0xc0fc332040acabc3U, 0x40ba66ff3f8b5a99U, 0x403f271abfa68a8eU,
  0x4112847cbfe5523fU, 0x40b1670340f777cfU, 0x40851043c00c43d9U, 0x40d452e83fe34d17U,
  0xbde7237841303af0U, 0xc023f4033ec40057U, 0xbfdfe4fcc0a8cb02U, 0xbf84b2c340603641U,
  0xc080d8703f18ec86U, 0x3e2bf1003ec653b5U, 0x406ee8cd40d2293cU, 0x40c517d640090722U,
  0x3ffaf47e408f1421U, 0xc025c683c0e05ff3U, 0x404057b3c08d0360U, 0xc07640953fd490e1U,
  0x3f3113ab3f58efbcU, 0xc0a9dd5f3ec2ee95U, 0x40fb326fbc45e51cU, 0xc11dd19a40ce89a3U,
  0x400b4f774073d9c9U, 0x40fbae7c4027cfecU, 0xc002514ebfad3049U, 0x3ef30133bf8cd922U,
  0x3fd5ebb2c04799dfU, 0x411adb19c1a6b9d4U, 0x40d7c0af410ddfc9U, 0xc0782817c04498d4U,
  0xc024c8744018fccbU, 0xc11d539d3f7e51b6U, 0xc133ba78c11e5eceU, 0x4166a6694121ed9eU,
  0xc09aa7913fde9c5aU, 0xc0f97bc74050ab06U, 0x3ed70393c1827d78U, 0x3e6eb5a93f9328baU,
  0xbfd40f98c0cd91ddU, 0xc11830d14035c0adU, 0x40bdf2f9c100fb9eU, 0x4089dcc8401d3dcdU,
  0xbff95d95c0ebd40eU, 0x3fc983bbc08e36f1U, 0xbf98b94740b56124U, 0xbfe26987403779deU,
  0x40fceaa6c0e87d73U, 0x3f177477c0510befU, 0xc0c1b6394089f31aU, 0x4029d9c2409f9ac3U,
  0x407dc16440c41227U, 0xc04400febf93d830U, 0xc0c48542bf0e2328U, 0xc09b35e7c01178f5U,
  0xc0d509ff3f7c0a1fU, 0xc124e0484125c6e5U, 0xc0a8499ec0d49ca4U, 0x40d0e3d13fbfdd8fU,
  0x4042166bc01063d7U, 0xc0ae31e74055b6feU, 0x40183fc3bf6e5210U, 0xc089420240d737faU,
  0x3fc0a21d401c4bf4U, 0x3f190d57c0286469U, 0xbf39b2953f2a6f2aU, 0xc00ef4f140e0641fU,
  0x4109dd1f40501cf1U, 0xbf1252d9c10618beU, 0x40e1ade3c0c4e7cdU, 0xc0aaf55fbf509d8eU,
  0xc07b5b3e40644daaU, 0x40a2b346404278eaU, 0x3f7b94c540d2edd1U, 0xbfddeb22c054a27dU,
  0x3f04bec44027d2fbU, 0x3fde8793bfbd0381U, 0xc10fbde53f3c5524U, 0xbeda1565c1114cf8U,
  0x3f866a5e406ee702U, 0xc1fab8e3bf2a782bU, 0x4101d3c541bd60d7U, 0xc113333d4199a442U,
  0x4158d005c1336f5dU, 0x40883c05c0e852dbU, 0x40aa607841b708edU, 0x4105b918c06ab67fU,
  0x413195fc408d061eU, 0xbeba61eb3f7d710eU, 0xc07156623f8c7ffaU, 0x40244daac02f68d9U,
  0x3fe0aa603f986820U, 0xc0e3eb2abecf2be5U, 0x407aa18abfef762eU, 0x403684e740eff58dU,
  0xc0b09376bfd69e26U, 0x4045abbac0d63bc2U, 0x3c0be4353ff2f3b0U, 0x3e89f79fc0258735U,
  0xbdcda3a6402826c0U, 0x40e53044c07e7c77U, 0x400689834042a9a2U, 0xc1379155409978f1U,
  0x4102848e405a46bfU, 0x401d90e540bda13bU, 0xbfcccc1fc018811fU, 0x4059f52340463c69U,
  0x4088cb7f3ff28d93U, 0x400a9cdac0af62f5U, 0x40e9c6df3f39244eU, 0x40c76405bfe6e288U,
  0x4122fdb741008d7eU, 0xbfdbb5c74057d307U, 0x3e6d4f53c093628aU, 0xbfb2a064bf84b55aU,
  0xc06c6f8340ffee74U, 0xbefae00ebf4d65bfU, 0x3fe4ca06bfb6eb8dU, 0x4023cbc5402b9d66U,
  0x40d452d4c0b2bcb8U, 0xbdf013bc4009265eU, 0x402dfc81bf85915dU, 0x403b0f2bc09ca6e0U,
  0x400c4e533fe2a58fU, 0xbfbe9977bf03cbe8U, 0xc0275845bffe0a10U, 0xbff7afabbfe39decU,
  0xc020645140c5ddefU, 0xbf7b61de408ab684U, 0xbf610093410cc353U, 0x403a23c2c0818b7dU,
  0x3fc2e9b63f112f2eU, 0xc00c0683405ec755U, 0xc04ec6814050d60cU, 0x3ea3a62d3be50fc4U,
  0x3f27161e410c323dU, 0x3e9aec1a4135515cU, 0xbfdd5b32404331f8U, 0xc0b580e7be829eeaU,
  0xc0064450c0b1baeaU, 0x404ef8714109b07eU, 0x3fcc7a0fc0be3384U, 0x40a2245dbf788352U,
  0xc0639b20c07e0327U, 0xc00be4f8c099e643U, 0x406497edbfc9b107U, 0x3f9bdaacc01f2694U,
  0xc0cf7d16bf07fbe6U, 0xc03508c73f9bc9d8U, 0x40c3f179405fdf0dU, 0xc0758dd3c0fa0cf8U,
  0x403b2d213fe5dd67U, 0xc03185123dd72495U, 0x4046be33402db3afU, 0x413cfca1c0100394U,
  0xc08e51dc40af4476U, 0xbf21c98c3fe3017bU, 0x411e39e83ff32d00U, 0x40a6c38e4129fb1cU,
  0x40ff59e9c1d60479U, 0xc18e5bdf4188b6f6U, 0xc0ac0626bee9b04dU, 0x410e459cc016b3ebU,
  0x3d7975564134bf0eU, 0x410f5856bf8ddedbU, 0x418d11ec3fe5b48fU, 0xc064cba3c0b578d7U,
  0xc0e8064bc0f9db52U, 0x4084042040e2b4acU, 0xbe9774ad404cd9e7U, 0x3f424dd4bf7e7851U,
  0xc00eeaa740a0f0b2U, 0xc0584dfec0678441U, 0xc0427fa440855851U, 0x4012d07c40110794U,
  0xc02fbd30407db975U, 0x409c6656413125eaU, 0x40c7adf4c0bf0759U, 0x4061e281c114773aU,
  0x3f2de92cc0c228a1U, 0xc0ecdd4640162442U, 0xc11fce72407df2b5U, 0x3ec854c440e3abecU,
  0xbfc394da408149b6U, 0xc126a56c3f9aabf9U, 0x3f5bdc9bc0f6b5e2U, 0xc06a10b6c061be2bU,
  0x402fa1c3c123292bU, 0xc095640dc0690ea4U, 0xc120998d3e84e2e6U, 0xc000c05640ed4127U,
  0x410cb89dc08660e1U, 0x3e9a9c23410ba765U, 0xc08981ecc027be60U, 0x4051b1f840b2ae4bU,
  0x40916982be6412eaU, 0xbfc68f95c0bbfd3aU, 0x40da1ec440b84cd6U, 0xbf6ac12bc08b5233U,
  0xc17c553240d9de02U, 0x400b250cc0b6fd30U, 0xbf342c0940f53ff9U, 0xbf36c5414111370cU,
  0xc07c17323f0bb779U, 0x3ff8f77ec011d99dU, 0xc01b88833e42d062U, 0x408a4b9b3ed2c74aU,
  0xc0f17452c0357a7bU, 0x40711041c0c699a3U, 0xc186c0c8404fc823U, 0x3fa73e3c406555eaU,
  0x3f084f714048b7cfU, 0xc024d1ac40c6cd60U, 0x3fbc57a1c086b320U, 0xc08eba1f3fc9377fU,
  0x40e6ccb93fdf6eeeU, 0xbfdca26e3f0dae9bU, 0x3f814ccb40e0f6d7U, 0xc00518b84025f188U,
  0x40d97ca73f5a80f2U, 0xc03a451bbf25970bU, 0xc0f53700bf668b30U, 0xc09c9fcdc08f4c16U,
  0xbccd6795c0701a61U, 0xbfd62e3fbd0e9e7aU, 0x4052b389bf91bff9U, 0x40e1c698bf91b6aeU,
  0x3f9f28423ec7e45bU, 0xbe81f943bf3651bfU, 0xc02cef6f3fb1ee51U, 0x3f903dffc028fa2bU,
  0xc04cba2140240786U, 0x40861ee74045dfaeU, 0x4049de313fa98b8fU, 0x40c906c34096674cU,
  0x402b423fc04b32e9U, 0x3fbbd2e840da5e40U, 0x3f40c5d6bfa71994U, 0x40f643bec078229fU,
  0x4155087fbf704b73U, 0x4024ada2c0026ae3U, 0xc0bb1cbd411f10b9U, 0x408f9e01bf8c20ddU,
  0xc0ba8aadc088ce78U, 0xc0ab2ee440f64196U, 0xc0677662c0601119U, 0x3fc7814f3f85ffe2U,
  0xc0c44441401c0fceU, 0xc12b007fc0987142U, 0x4101ddf2c046ba0bU, 0xc098620a4073dccdU,
  0xbf3e13033fc36c1eU, 0x40a08a93c0a1ea57U, 0x400100e63f1e2fcdU, 0xbe6393d34099e60eU,
  0x411c020ec086be72U, 0x40941e1cbf265f8dU, 0xc05dea654104bd53U, 0x40f6248fc09d96d6U,
  0x3fac993e41608250U, 0x4097f836c142d144U, 0xc0c8a960413295d4U, 0x40dbd3a9bf115b73U,
  0xc03356e1bfaed02aU, 0xbfe14894bf96ed57U, 0xbf285aeec0a96693U, 0x3f5d657ebfa51608U,
  0xc07013683fdd479aU, 0xbf4dcecbc0c01d51U, 0xc0f7c15ec0d64ad3U, 0xbec5c32b40159306U,
  0x40844d033ff0f2b2U, 0xc029cde4c0ac950bU, 0x40ed5985c0b2475eU, 0xbfc9a581c06e7468U,
  0xbfd75538c0a09f32U, 0xc02b322ec04ba297U, 0xbea8dea240a6d370U, 0x3edace4e4116781fU,
  0x41b50627c1846e8eU, 0xc03e132c4069398dU, 0xc12468ddbf9c1606U, 0x4086eea7bedbf506U,
  0xc08f41a7c1133b8bU, 0x410df5eebfb1dcbeU, 0x41221485411a25afU, 0x411d8f81c13b5e16U,
  0x4139d175c01811d4U, 0xc0b5f767409c131fU, 0x40d11d6f3fbe8ee6U, 0x404e6d2040024f71U,
  0xc00bd1ba40751a50U, 0x40078a96bef9cfc4U, 0xc02a7ce340a3c036U, 0xc01f1119401c7f5bU,
  0xc0147c334026dae1U, 0x3fc882a8c03ba2f9U, 0x3f823156bcb385d4U, 0x4025f37c40cef001U,
  0x40fb3b6c3fe9ba8aU, 0xbfb3d737bf47fcd7U, 0xc068a5b240f6f0eeU, 0x40375d12c05fa09bU,
  0xbf167440c0906f19U, 0xbec533b840ac8c28U, 0x3d81be16c098841fU, 0x404aa4484010fcd5U,
  0x3fe24f0cc06b0b93U, 0x3faf29c13ffd8e93U, 0x3e62ac23bfcd556cU, 0xbeddcfc64019a409U,
  0x3fbe194bc01d6a9aU, 0x3e908ac1bf7cabc8U, 0x3ef28520bec9d2d0U, 0xbef56bfb3ff1b862U,
  0x3f1f358fbefea179U, 0xbfb3bd3fbd956dc3U, 0xbf981949bf15dda8U, 0xc0013296c04974c7U,
  0x40ba07f9c0fc7803U, 0xc094bee540c33c32U, 0x40bab385c0e056edU, 0x40a8c949bf6489e3U,
  0x3bba9fefc0ba6c27U, 0xc00687f9410920c5U, 0xc0a594f33fb7e5c7U, 0x408af0dfc0364ae5U,
  0xc07cb943bf80f7b3U, 0xc013663ec13eef7cU, 0xc15729b6408f0a3bU, 0x40dc6c14c0f53cf5U,
  0xc02db87a4060e778U, 0x3ffbce60bffe3cf7U, 0xc04de9ee408378efU, 0xc070e357bf2d8cf3U,
  0xc048a259bffd2e08U, 0x3fc77815c06a0cb9U, 0xc03e0a2a41246a0dU, 0xc1031f12bff09046U,
  0xc194bd3bc036482dU, 0xc17053d2414fba8aU, 0xbfc1cc30bf32fecaU, 0xbeb7ac60c08c9392U,
  0x3f582cf640e5f02eU, 0x4101628fbdfb3af0U, 0xc0d7e093bf942b5fU, 0xbff76ea6c06d0e5cU,
  0xbe961c69c05a72c4U, 0xc189433d411df757U, 0x4071f440400eb650U, 0x3f5ae2f8c01dfb8dU,
  0x3fc5f4d6be172020U, 0xbf46044c407a8f0fU, 0xc08b4512c126d90aU, 0x410d3f20c12d20a3U,
  0x40fa4fe1c0454b9cU, 0xc0ba3b04c08e22a8U, 0xc0cc71a740a3309bU, 0xbdc807a2c003e658U,
  0x40682f07404b6bfeU, 0x4074f85fbea8eec5U, 0x3ff5f25b3f972969U, 0xbe837caa3ee30410U,
  0xc02833c1c017a8d6U, 0xc00ebb86bfb0579bU, 0xbfe5a41ec0ac1e13U, 0x3f1ebc973efa5dabU,
  0xbecc13c6c01b3a75U, 0xc1025af5c18e2476U, 0xc08a1ace40b4411fU, 0xc12bee9040a469b6U,
  0xc103204a40948bb6U, 0xbf04fc163f9f4a28U, 0xbb4f3e8f408adae2U, 0x3f6576bec0d01553U,
  0x3f4c5743402a80fcU, 0xc10683eb3f51f8adU, 0x4004ec22bfca3e87U, 0x40856ec3c05ef6a9U,
  0xbffff35040852071U, 0x3de42772369f993cU, 0xbf8b61cc40db3093U, 0xc06001eb402aa682U,
  0x3f1ed70dbecc63f0U, 0xc09121344013fb68U, 0x40b7002abe9fdbfcU, 0x407f1c9fbffd2703U,
  0x40de083340d82fb8U, 0xc046a3b13ff067aaU, 0x407a13b2404ef0afU, 0x4083cf4cc0a3940eU,
  0xc07bef4e40c57a1bU, 0xbf3b1f55c02fa537U, 0xc0c002ba405d6040U, 0xc08dedf6c09990c7U,
  0x40b088a541068e6aU, 0x412145cfc073efbfU, 0x3f8f44723f89905bU, 0x40c5c665c13f1827U,
  0x400bda69c05969d2U, 0x40e6b12dc0b7351eU, 0xc0ddab6040f6f488U, 0xc0eceb184122d379U,
  0x4117da70c0e71337U, 0xc12ec6363e96eecdU, 0x4060284c4106b46aU, 0xc01e73a2bed053e1U,
  0xbfccdb75401bc1a7U, 0x411f9581c0ee95a8U, 0x41883c50c10a0912U, 0x40bd5be43e6ca761U,
  0x40cc5b19c1054b03U, 0xc0e79dae405f1fb3U, 0x400057b44012bca9U, 0x40b2ab6140ace53eU,
  0xc02e2ed93f4236eeU, 0xc117a9c33f851c7aU, 0x412cd656c084156fU, 0xc0ae5accc01b5a2aU,
  0x41382403c0f09144U, 0xbfc5f73b3fd1fe8cU, 0xc0472848bef74887U, 0xbf780add3f7f4c8eU,
  0xbfc47f9ac0c6f77aU, 0x3f424d9d3fd3719bU, 0x40457154c0162a1bU, 0x3f7292ebc0092468U,
  0x40b3cd4fc0f094bcU, 0xc068d324bf7a063aU, 0xc098c4304082ba24U, 0x40c6b8f1c089039cU,
  0xc07a7dfa40a0202aU, 0xc09c7b16c0442f43U, 0x3de065083f687d6dU, 0x3fc9e34fc02b8ae3U,
  0xc0224cb63fb3a76fU, 0x3ff7e65cbfa5e5d2U, 0xc052c283c0559b45U, 0x403e04393ef445c4U,
  0x40cecd0c40db5672U, 0x40f0a868c1347355U, 0xc09c745d411ef548U, 0xbff428143fbdaf7aU,
  0x4090157dc05dc3d9U, 0x3fc1c9e53fbf6b92U, 0x404034efc05abb58U, 0xc04f2aad4073b85aU,
  0x3f3ee549407d589bU, 0xc02c82713f2e4127U, 0xbe8aebf2bfe2472dU, 0x3f3c5c323faf2a58U,
  0xc04abe4740799b7cU, 0xbe3bfc31c050ac26U, 0x3fcc10ad3fc86d61U, 0x40350bb3be460373U,
  0x4022e9f4bfe9e38eU, 0x3ea170363efc5e73U, 0x4099b5773ec0fe79U, 0x4028692dc0bdcd7aU,
  0x4106f94ec094a1d7U, 0x400ff5c0c01ac659U, 0xbe3c784c3fdf86fbU, 0x3ffeb2263fc8ab40U,
  0x4021c14c3f4b09d6U, 0x3fec1ad9c0c554d4U, 0xc08b821fc026b386U, 0xbfefcb0a3fb7ab65U,
  0x3f91bc4ac01848b4U, 0xc12b584bbf564146U, 0xc0e293323f82b443U, 0x3ec339bcbf14fa0cU,
  0xc0c5ac3b40ea84caU, 0xc041895dc08b4c32U, 0x40048c313fc32fbcU, 0x400ba4373fef1703U,
  0x3ff4335d4054af46U, 0xc0c413504078b63eU, 0x40d3495040aad1b5U, 0x3e628bd0bdd3bca4U,
  0x40ad06f3c0ac5fbbU, 0xc0b2a212bed8a812U, 0xc09b30054040f301U, 0x3f9cc80241499bdbU,
  0x3ef44d1041366ffeU, 0xc01b504840775d7aU, 0x40b4e067406e9018U, 0xc0a0886940c5fca0U,
  0x4086e3a740a9d149U, 0x40bc4e7440647282U, 0x40d9dc19c042bc3fU, 0xbf3e3d234036b5dcU,
  0xbf8c81824053cce7U, 0x405c66a0c01ac3b3U, 0xbf8b88673f98853fU, 0xc0fa630441176e69U,
  0xbfb59334c0949172U, 0xc048333cc1006800U, 0xc0fec5c43c22b8c1U, 0x40323c52c02f641dU,
  0x407af55740ae3e6aU, 0xbf85b9a3c103252bU, 0xc0ded725413c405dU, 0xbfaac5a1c0fc8c72U,
  0xc0ddaa293f848813U, 0xbf433023c0ac2a0bU, 0x3eaf6e93c08ccf7eU, 0xc00175fb40a1ce5cU,
  0xbf81520bbf7fe7a4U, 0x40ba1c07bf887ce9U, 0x40a790f4c17c3a11U, 0xc115a370412a4475U,
  0x40c0f4adc09d7745U, 0x403c7e66be83c984U, 0xbfe4a99ec07a9d29U, 0x3ed729864086da71U,
  0xbfe2273cc1040a19U, 0xc0272c8f4042ecc6U, 0x4105c75840ba8717U, 0x4109c2d3400d61f3U,
  0xc131d7814181a5efU, 0x3f788cb2c085f544U, 0xc09255d6409a1b95U, 0xbfd07e5cc08e47beU,
  0x3fd2256f407533d2U, 0xc12853d340935856U, 0xc0ff457b40efe422U, 0x3fdf2bd74140e099U,
  0x40b37c8fc003403dU, 0x411e3c7cc0b1514fU, 0x41133034403ac13bU, 0x3de454b6c08523f5U,
  0xc0d393254149ec4dU, 0x40ba716a403a4288U, 0xc1096d4c4008286dU, 0xc01184b740bb5a0aU,
  0x3feeb5abc085379eU, 0x3faece163f0f2daaU, 0xc076f650c0dfc8f6U, 0x40420361410cf5ceU,
  0x416d8731c00a6bc9U, 0xbfc0a2aac018477cU, 0xc03ed425bf4c672bU, 0x3f8005fec0e3c0d6U,
  0x40b41e364071cab3U, 0xc091aed7bede9e2cU, 0xbfb994e5c06b3e2bU, 0xc022c88ec1054515U,
  0xc0a282134117d988U, 0xc0d8d50e3d2a6336U, 0xc1614ccdc0ba38b4U, 0xc007f17e4067ba04U,
  0x41301adec11e7c55U, 0x40e7f965402e8443U, 0xc0491ed13ffdef44U, 0x4099ff09be9d3e10U,
  0x3f3ba3163ffe2102U, 0x4005cedfc06047a8U, 0x3dc4803bc0888c59U, 0xc00c442c40032357U,
  0x416a7183c0bd403bU, 0xc048efa040a43f5bU, 0x403eb1abc0cdb651U, 0xc10281953fdb67d0U,
  0x3f717c31bf979669U, 0x40c75b38411b8d71U, 0xc121db9fbf8f5b22U, 0x4052eb28c0203e1bU,
  0xbf1974c0402319acU, 0xc03d148cbf05ccddU, 0xc1942779403a83efU, 0x4187a555c0e3938aU,
  0xc0883b7b4076d7eeU, 0xbf6adc9c408335c5U, 0x40b3b6f3c090ee72U, 0xc029b00d413d4663U,
  0x404f84d2c0d04442U, 0xc0dff3c7be3dcfe9U, 0x3df4f37d3f3bc687U, 0x409cd7f640a5e72fU,
  0xc10f95dd40a83516U, 0x40992364c0a15242U, 0x412b7acc40953a4fU, 0xbfe24b2bc057d172U,
  0x41368d4140b3c0caU, 0x3f8648b6c021488eU, 0x4043b1b8c1882831U, 0xc05198d0c086407fU,
  0xbef69dfb416366bcU, 0x410241f2c04ee60bU, 0x4084cafa40cacc4fU, 0x40ea8528c0a8b54bU,
  0xc08045904103d294U, 0x4061d5fdbff440c5U, 0xc093e9604060b38fU, 0xbffc2858bfcbd10aU,
  0x40627e8a40daf5f9U, 0x4102afc0c01cece6U, 0xc12437ffc098eb0eU, 0x417a03f44037fbd7U,
